/**
  ******************************************************************************
  * @file    model_full_data.c
  * @author  AST Embedded Analytics Research Platform
  * @date    Wed Sep 29 14:30:36 2021
  * @brief   AI Tool Automatic Code Generator for Embedded NN computing
  ******************************************************************************
  * @attention
  *
  * Copyright (c) 2021 STMicroelectronics.
  * All rights reserved.
  *
  * This software component is licensed by ST under Ultimate Liberty license
  * SLA0044, the "License"; You may not use this file except in compliance with
  * the License. You may obtain a copy of the License at:
  *                             www.st.com/SLA0044
  *
  ******************************************************************************
  */
#include "model_full_data.h"
#include "ai_platform_interface.h"


AI_ALIGNED(32)
const ai_u64 s_model_full_weights_array_u64[ 38476 ] = {
  0xbee74db3be846313U, 0xbe76ba64be7b0e7dU, 0xbebf0e2bbe350c07U, 0xbdecbfecbcc8ce30U,
  0xbf2fdc4abed94350U, 0xbf050e66bf5cd4ffU, 0xbee1ea6dbdb51cd1U, 0xbf0c23f1bf05f94dU,
  0xbf369f02bf8301e8U, 0x3f6c7edb40aea732U, 0x408e9d5c3e34ac6dU, 0xbfda5fb0bda0f325U,
  0xc06f71ccbfb83d6aU, 0x4020decebf86ce02U, 0x4056c8c04048afdeU, 0xbecce5dabfbe3355U,
  0xbdda78cdbf9a5dfeU, 0xbe9b01df3e504bf9U, 0x3d4eb9263df36415U, 0xbe91cb893e9ce694U,
  0x3e6a733ebe811777U, 0x3ea4de5c3ef939cbU, 0x3f0dc585bb71de53U, 0x3f35abae3e929dc8U,
  0x3f2d2644bdff6a23U, 0xbfd796533f8148abU, 0xbf6622c13e84a9d8U, 0xbf6394b441095645U,
  0x40038860c084e48dU, 0xc04e5fe9bfd45442U, 0x40ea35d1c08f8910U, 0xbf3600ec3ca1055bU,
  0xbea9789cbf381fb5U, 0xbecf1032bbc72f6bU, 0x3f010330be12a552U, 0x3dd811b63ea723acU,
  0xbfb4d6273dc122b8U, 0x3f3c21c23f299234U, 0x3e92c30a3ee9c2fdU, 0x3f0f2e903f50b1aaU,
  0x3dbd47573e34cd75U, 0xbcef76adbcaa7777U, 0xbdfbe70cbe143954U, 0xbc62d8e6bc6abca5U,
  0xbe30a244bcc807aeU, 0x3fa9a2bf3d0e9b7cU, 0xbccb8806bec2f37eU, 0xbe5d8ac73f098288U,
  0x3ecd3787be6caa7dU, 0x3e6957f63e659390U, 0x3e852be23efec5eaU, 0x3e533a333ef1d253U,
  0x3ec8919e3ed1010cU, 0xbf03a3dfbc5a37f6U, 0xbf1841e73e555b31U, 0xbf2580e5bf7dcb1aU,
  0xbef4ec533e13153fU, 0xbea4edc2bedc91d7U, 0x3d121bd3bec7a04fU, 0xbf0ba5cd3ead44f0U,
  0xbf457adcbfd7448bU, 0x3fc9b1dabca13495U, 0xbf0c13d63fc2c565U, 0xbe10c193be4be4dfU,
  0xbbf19d88bedec23fU, 0x3dd30167bd35a438U, 0x3e5694ec3da9abc9U, 0x3f0a1f96c07a4425U,
  0x3dc4113dbfbf50e1U, 0x4094cb30bfeb9e30U, 0x3fd02c003ee70c4cU, 0x3e04599d3ec59264U,
  0xbca208403e5142d7U, 0x3e0d21863db0ac1bU, 0xbdef377d3e8f9f53U, 0x3c04d929be3e5e45U,
  0xbe341ead3eaf5282U, 0x3d2da81d3dbb3fcaU, 0x3eadd448bee93338U, 0xbd31bb4e3cabbb9cU,
  0xbdd95d513d120510U, 0x3d9317693dba8b01U, 0xbe2507803ec73088U, 0xbccf6086bd80de92U,
  0xbe7df27cbd3d258dU, 0xbf261c7f3cc7abe5U, 0x3e93083bbe7b9ce3U, 0x3d8339d7be7a7c3eU,
  0x3e72c63bbe1076eaU, 0x3f1b9c2a3f1457e0U, 0xbe8d5801bee46c3dU, 0xbd51c3303e670c1eU,
  0xbedc9c8c3d14237cU, 0x3e7e4d4fbea60870U, 0xbeb6960fbcf0ee3bU, 0x3dc7255f3e65db86U,
  0x3e290b813d6a47fbU, 0xbdd01a1b3e198b33U, 0xbe327d533ec1e255U, 0xbe3280ff3eb1c469U,
  0x3fa1f15cbe329109U, 0xbdb7c987be07d4b0U, 0x3d62727bbdc560bfU, 0x3f4d00193eb01f9dU,
  0x3f0ce8a2bf193c69U, 0x402a7543bf103cccU, 0xc041fd26bf985597U, 0x3d4cd48e3f8341f7U,
  0xbf14e13b3ee2e9d4U, 0xbe366cf2be12b742U, 0xbeb6650dbf49968bU, 0xbe637ff93ec87d77U,
  0x3e07c4903dcb852cU, 0xbed42e2fbf1337d0U, 0x3f63a6953d8b28aeU, 0xbe55a4dc3e97252eU,
  0xbe044be5bdbd0d2dU, 0xbd1f6791bd9dfb20U, 0xbd2aa7a1bd3e8f65U, 0xbd81bbc9be23fbe7U,
  0xbe5ca9ebbd48ca79U, 0xbf18cfebbd24fd6cU, 0xbe52b7af3e48945aU, 0xbe9877e0be9652e1U,
  0xbed8a38bbe44aaeaU, 0x3fd6a8d8be0869c9U, 0xbfc671583fdc8711U, 0x3f0c5ecfc00034cdU,
  0x3e69fc27bedde8ecU, 0xbf8fefdabe19c1faU, 0xbfd1477cbfb9f251U, 0x3cbfa5943f5e82d5U,
  0x3fe3ccd7bdfbeaa7U, 0x3f678e0ebe82e77cU, 0x3c7c4679be37984bU, 0xbd98be81bdb710afU,
  0xbd54b402be73c5fbU, 0xbd82caaebe798120U, 0xbe81e6243dc8b0b3U, 0xbe176a29bd5f8884U,
  0xbd27628bbe156013U, 0x3d936d0ebdee74b3U, 0xbddad308bd457d88U, 0x3ea55eae3ea982e7U,
  0x3f152548bd9ebcf2U, 0x4026f1c53fcfdf06U, 0x3ed007dabcecf6f1U, 0xbe82be6dbdf0046dU,
  0x3d85be503edc7a9dU, 0xbe9fea823f08aca7U, 0x3e130f533e893946U, 0x3edb9f743e992c48U,
  0xbf3a12173e1a7479U, 0xbf208b49bdb48988U, 0xbf30d81fbf1ad592U, 0x3d49f4353f82d4cfU,
  0x3d93f7aa3d8d2f42U, 0xbe6a2da3ba5b7e77U, 0xbd878ba7be096e3aU, 0x3e99a8b0bf03145aU,
  0x3e37e37c3f0d6559U, 0xbe26dfc43f00a522U, 0xbf079a9a3e2129a0U, 0xbe8a6471be88cdbbU,
  0xbe07a5793e1c2e16U, 0x3f0c84b43dce32a5U, 0xbdd3471fbd657227U, 0x3eea0bc7bc97fd32U,
  0xbe9461a83df4eaedU, 0x3f36a7d33ecd50daU, 0xbe114a6abec8c27cU, 0xbe0115db3d4fecd7U,
  0xbd8b4b013e2b4fc7U, 0x3ef438583e800526U, 0xbe812a43bd4b5780U, 0xbd80c3edbe82d26dU,
  0xbece218e3e24b31dU, 0x3ec4cf05bed5e7f2U, 0x3ec6654fbd94303cU, 0x3f526707be8cd61aU,
  0xbe7f46a03e52fc9cU, 0xbfcd16103d83729fU, 0x3efd7ea4be1938c7U, 0x3e000a883e677d22U,
  0x3e30138c3e334ab7U, 0x3d93b4f73e9c91b9U, 0x3e3192d93e8763f6U, 0xbe08340f3e3bf6a0U,
  0xbe2be4d03bf1552cU, 0xbe085bb3bcc17039U, 0xbe439336bdec25f4U, 0xbe6c1fa0be70bf44U,
  0x3e0993ebbeb32b50U, 0x3eb3e7293f92d04aU, 0xbd93e8a63e87d5b3U, 0x3e30b0b5bf28e6afU,
  0xbd70f968bd692208U, 0x3c903d6bbed91ef5U, 0x3c970519bd7a36dbU, 0xbd9c469ebe3f9694U,
  0xbd317cc03eb881b4U, 0xbe9c17b23e55277fU, 0x3e435bd0be554278U, 0x3e8ce6523e0d6b49U,
  0x3e8357e93dd777e1U, 0xbdc585143e258348U, 0x3d8f4e01bd20bed2U, 0x3dc0844c3e182ba9U,
  0xbdcac997bcfbc843U, 0xbe61f181be4c0153U, 0xbf01aefcbfa7ec03U, 0xbe19ce233e774070U,
  0x3f5827483fbf8c44U, 0x3e88c7f5be8247f5U, 0x3d2ffd933f36d723U, 0xbd9e0e1ebe126065U,
  0xbd6b0d9abb261215U, 0xbe7b2bdbbddca053U, 0xbe666e2abe82bc8eU, 0xbd9c4a18bfdd84e2U,
  0x3f496dd2bdcf2c76U, 0xbefae867bf70aec2U, 0x3e5f7ab9bfa2c520U, 0x3d85b6c6bed87d1eU,
  0x3eb033d5bf1f6391U, 0x3e75a46d3de3f91fU, 0x3eacc7553ddd29d9U, 0x3ecc687ebeb2c9d6U,
  0xbe3aaa71bea8e49eU, 0xbde5c2b6becac80fU, 0xbe1433213f361125U, 0x3e48f9b13e8854d1U,
  0x3f1b3737bdc975efU, 0xbea38c033efba214U, 0x3f17805a3ee4631eU, 0x3f3083adbe2b5e84U,
  0xbeae1bfd3f05f37dU, 0x3e029aa7be0b6b05U, 0x3e99bedcbeb34938U, 0x3e8a26e43dc47913U,
  0xbf369b18be925849U, 0x3e9dc31d3f982e0eU, 0x3d3c9dcb3e2828bdU, 0x3e7173b1beb9d113U,
  0x3e8e9ff23f2f5e52U, 0xbdf31422beb3f727U, 0x3e3e916d3df5e396U, 0xbe9eef8dbd4c3cf7U,
  0x3e3957e0bf0ec1eaU, 0xbe2e8a063e081272U, 0x3cc22e413ebe024eU, 0xbbf98517be84d869U,
  0x3df6ad91be0c6d0dU, 0x3dcebf053e3377a0U, 0x3dc19de93f0baa4dU, 0xbd0dcd633f45f589U,
  0x3dcf92a5bf284e92U, 0xbf3013813efb94ceU, 0x3da0bf263ede1773U, 0xbf8729383df90285U,
  0xbf2972e3bcccb8f2U, 0xbf62dff4bf090642U, 0x3e4f3b58bf77ce3eU, 0x3e6b1347bdf44742U,
  0xbe85657bbe0fb710U, 0xbe8bbe37bee35f6bU, 0xbceb77c73ac12c87U, 0xbe098203bd62c5c5U,
  0x3dc7b59dbbbf82cbU, 0x3e49778b3d8533dfU, 0x3d446d563c8706e6U, 0x3e1877613d0c6c7aU,
  0x3db0997c3e1864f6U, 0x3f0ab45b3e83df38U, 0x3ed0f015bd12645eU, 0x3e2a967c3dfaf4aaU,
  0xbd0646e5bedfd270U, 0xbe959eba3f0308edU, 0x3f29b0c83ef2eba9U, 0xbef3d148beb9f17aU,
  0xbdda6a59be11e1dcU, 0xbe2120c73c95de9eU, 0x3de384243e9fd99cU, 0xbdb031cabee77087U,
  0xbe77a64cbca21307U, 0xbe935a7bbe916ea2U, 0x3f2f9236be063c9fU, 0x3cfc696e3f0dc668U,
  0x3eace80e3e41c2feU, 0x3eace6353f1f3b37U, 0x3dc288033f1ba014U, 0x3ec21f153f1baa0aU,
  0x3dfdeb8f3d51c247U, 0xbe42f2c33df4f2c2U, 0x3d2e9155bee64070U, 0x3f0bf4c64041e6e5U,
  0xbec72ed0bf2bc0a1U, 0x3f972890bdec1e77U, 0x3e4e8edac01b6717U, 0x3d35841d3ecd48ccU,
  0x3e54591ebf00c25cU, 0xbe9b8d213f70df0cU, 0x3eb404bebe5733a2U, 0x3e8ae2013cc26d49U,
  0xbe4f0195be31fce9U, 0x3d89a6b73e5bbca0U, 0xbf18f817beb6dfaaU, 0x3e5dea123ec00d55U,
  0x3f61e8aebd9516feU, 0xbeefa2b2bf1eb062U, 0xbda3a3eabe28673aU, 0x3ed75605becf1ba7U,
  0x3d8ecd83be48fdd8U, 0xbce97ed73d96686cU, 0xbf6723ef3f3d1b8eU, 0x3e900faabe74fe4bU,
  0x3e192da93c4da7a1U, 0x3eefebc13e6936b2U, 0xbeb348a8bf29b4c6U, 0x3e5858a23f294ff9U,
  0x3e1c83893c93b212U, 0x3ee1bbb6be849fd4U, 0xbf2717fe3cc7a095U, 0xbc5375cd3baa2ea3U,
  0xbf358b62bb633856U, 0xbe57981b3eb50c61U, 0x3f1b3e5cbdb3ab09U, 0xbf6cc5adbf91c24fU,
  0x3e1dee813ed9f3eeU, 0xbf1b99cdbee0cfe3U, 0x3f051dfdbf87aabeU, 0x3f1b6abcbf34359fU,
  0x3f63266fbeaf9c5dU, 0xbbf343043e9503adU, 0x3f805844be3606f2U, 0xbdf29ecfbe2460e0U,
  0xbcff1644bdd72555U, 0xbc0b537bbde0fe28U, 0xbd6d270fbd67faaeU, 0x3f1bfb65be2ddf14U,
  0x3f40accb3f49bd0cU, 0x3f4fff4b3f2ddf72U, 0x3e7eaaa03ef05e79U, 0x3a32f5a93d9c4b5cU,
  0xbec7d6f6beef8134U, 0xbe685806bda73094U, 0xbeb6e8423e978b7cU, 0xbe619a67be3ca789U,
  0xbef8faa83e2abdafU, 0xbe9e922abf17219bU, 0x3ded4931be247e73U, 0xbeb16ea73e1ca91bU,
  0xbdf4e1043e8bf479U, 0xbf68391dbf6984f5U, 0x3f59c475bf1964afU, 0x3fa7a3d7bfed4260U,
  0x3bf1cbfc3f7a056dU, 0x3f9954a1bed1407fU, 0x3f0b677f3f5bea5aU, 0xbf1e5900bf63efa4U,
  0x3e6127ff3e87d74fU, 0x3e64c6f2beb9b818U, 0xbe84f8383e2164d1U, 0x3ed790283d1304feU,
  0x3e35b70e3edab5b8U, 0x3f1b6a103ec59e8dU, 0x3f0e75cb3ebf033eU, 0x3ea454373de99645U,
  0x3f8e13b2be6af11eU, 0x3e9422e2be10706aU, 0x3f2afc753df19566U, 0xbfdbd6aa3c5e0c34U,
  0x3fdc13cf3f5f58cdU, 0xbf10992d3f3b1a61U, 0xbfd316fbbf0c1d9bU, 0xbb0503233f3ccbdcU,
  0xbea131b33e5936ebU, 0xbf3714a63ebefcf4U, 0x3f234a86bf0b7de4U, 0x3eef4bc03f26f997U,
  0xbe8c76e9bf5d99c1U, 0x3f20e720be10480bU, 0xbf83a81d3e17d554U, 0xbe96c0e8be1fe98dU,
  0x3eb44c5d3e0bea3bU, 0xbf2a6d2cbf13e972U, 0xbf4e546dbea5a4b0U, 0xbf228cf03f80426aU,
  0x3f49e2113f0fd616U, 0x3eb87f23be8603bdU, 0x3de32d873f115a48U, 0x3ef4e3f8bef5e8f1U,
  0xbec322613f392d6dU, 0x3ee91438bccd19dfU, 0xbecc2c9d3f144e1dU, 0x3ebc37cf3cf7011bU,
  0x3c9fb8fcbeb69b2eU, 0xbf19aa93bdf5f056U, 0x3ea352a53f4628b1U, 0xbe107cfcbf6dd6feU,
  0xbf8e591ebdeb0e10U, 0xbe355b5cbe46beacU, 0xbf0428c03f17b258U, 0x3e3186b8bd319305U,
  0xbf1d9cb2be3e2418U, 0xbee23e57be939b8fU, 0xbd54aad9bf172b48U, 0x3f6c1aea3e80148aU,
  0xbf984c253f8ffdbfU, 0xbe9ebdccbeba14e3U, 0x3fac39a83f8bd834U, 0xbd938a43bdf19f81U,
  0xbf39ef1b3d2d0a32U, 0xbe9f66dabe735909U, 0xbe0b7c00beae80cbU, 0x3e8645d7bec31d73U,
  0xbe146fe2bd389774U, 0x3cefa5afbee81648U, 0xbdb76db0bef4af68U, 0xbe9a89c0be122214U,
  0x3eccae83beb59b56U, 0x3e9c3c353f125b53U, 0xbc9bb96d3e60f635U, 0x3d20ed993f4fabafU,
  0xbed076203f0c1563U, 0xbe82993bbe1816fcU, 0xbb5d7f1cbee03031U, 0xbe1f65b7be405bc8U,
  0xbe6cce65bdce3f0fU, 0xbeb4b84ebf4cab45U, 0xbf091a1ebe246bd4U, 0x3efec29dbe7fa0e7U,
  0xbda1da7abe439d9dU, 0x3eead446bd2d65acU, 0x3e970ea53e8f6b05U, 0xbe3978773e5cd9b0U,
  0x3e6967343de70e2fU, 0x3dfb823dbdc16e06U, 0x3ef89ddd3db76315U, 0xbe8efa4e3e64dd04U,
  0x3decddfcbc89d973U, 0x3dd26fe93e9803bbU, 0x3ec166f23e90424bU, 0xbdf432e03f5ce698U,
  0x3db7a37d3d9b72c1U, 0xbf59c92f3d6a2994U, 0xbe8cd9a6bf92e293U, 0x3f2732b63fa4aad0U,
  0x3f5f0f9abfc304cdU, 0xbf5599033fd1dfd3U, 0x3f58dda7bf11737cU, 0xbf7d2d7e3e9463a1U,
  0xbe79a7983c2994c7U, 0x3ef285bf3c8225cdU, 0xbd367b003f45f086U, 0xbe5959fbbe8abc5cU,
  0xbe996bb6bea32895U, 0x3da4bf21be8bac64U, 0x3fad4feabe135c2fU, 0x3e26fc6fbf08e823U,
  0xbf11cfac3e3a2da0U, 0x3edb4740bd7b3172U, 0xbeac0acc3f2beac1U, 0x3e3ce48cbd077a64U,
  0x3ee169fd3f379f07U, 0x3fa721993f3425f1U, 0x3f0903c13e407002U, 0xbe72d6c13d40e005U,
  0x3e9607d63e3c9149U, 0xbf0c9b4b3f06c47dU, 0xbeee0954bed6a071U, 0xbee2579dbf3e1133U,
  0xbe073663bec544efU, 0x3e9ab5f23faa6791U, 0xbd616dea3ec01d2cU, 0xbd1410963e23ecc3U,
  0xbf0abb54bf1d2af7U, 0xbd1d9b173f9525dcU, 0x3ec6e00abd99e210U, 0xbec350d03cfc17f6U,
  0xbcc1be993f23cf7fU, 0x3c857d52bf46bb29U, 0xbf398eeabe447cb6U, 0xbdbad6debebbca06U,
  0xbfe3d6123e0b9299U, 0xbf267ed13e35c15bU, 0x3f8cc570bf0a964bU, 0xbe7b612cbebf6b85U,
  0xbdf6896ebece9248U, 0xbe197b0e3ea5f282U, 0x3ec4e63d3f28b229U, 0x3f646ba63e79acafU,
  0x3f35cf063efbc90fU, 0xbf1ed5f1bf251756U, 0x3f0d9d983ede35d2U, 0xbed45d5ebdca0086U,
  0xbf182d10bd4d6fd9U, 0x3f37b9bbbf056ba8U, 0xbf6507c63ecf41f3U, 0x3e6c7fbc3e4bf432U,
  0xbe906e6f3c91793eU, 0x3e26eeb0bd4529b5U, 0xbeda2904bebfd6c3U, 0x3c6ef1e2bedbbcb9U,
  0xbe429a76be0b19f4U, 0xbed4343fbf08539bU, 0x3f2a3ae2be1268d2U, 0xbf71847dbeebbce3U,
  0xbe45962dbeec2ee9U, 0xbeb2a889be88df61U, 0xbf74194ebdca0767U, 0xbfa1720fbe81bea6U,
  0x3d3d140d3f138879U, 0xbe0e7fcf3e07773bU, 0xbf37192dbf05ffa6U, 0xbf71cf14beabdd0aU,
  0x3d9194a93e9d3581U, 0x3fa5cc53bea5d23eU, 0xbedfbd44bdb19f69U, 0xbef9a3eebe774929U,
  0x3eb88b2e3f6a3d8bU, 0xbe42222a3e6d598bU, 0xbf02dab2bf968b6aU, 0xbd375074bdef293cU,
  0x3f0f2ca13e4cfa96U, 0x3f58a8173f851809U, 0x3f648f0e3ea63d48U, 0xbebaa0ecbc3df62bU,
  0x3e9c8c22bfb95c37U, 0xbf0936403f81979fU, 0x3f8fb57c3b4e05d0U, 0x3eed12a0bf89026cU,
  0xbe02357ebd5fcebaU, 0xbf3b95503f74a275U, 0xbe2fe03bbf30e2b3U, 0xbec7528e3f839944U,
  0xbc738ff83e067a24U, 0x3e39a231be5ed18cU, 0xbf423dd0bed6122dU, 0x3f2074c6be82c403U,
  0x3e8cc4033f9dccadU, 0x3ed440903ef765c7U, 0xbf51bacc3ef0e7d2U, 0xbeb960233e8cf023U,
  0x3eb1389cbeb84cefU, 0xbfa97475bf64f6f3U, 0xbe49d5d33f79f41fU, 0xbf381b7f3eb8d759U,
  0xbe33e0a03f9f59ceU, 0xbd7c02c03e9a4bfeU, 0x3f1fe7163e2115eeU, 0xbf0562aebe6111b5U,
  0x3ef905e1bee015f9U, 0x3e277227bf7140e8U, 0xbf1f4e49be8431d0U, 0xbed9583abf159399U,
  0x3d86bf55be0873a7U, 0xbe4812f43d95a9daU, 0x3fad3cd8bdd12f48U, 0x3ef43b9ebe1e7262U,
  0xbf0849053ed7c001U, 0xbf2d9fa83f25bc1dU, 0xbea9760f3f819fadU, 0xbf50dce33e6cd6c8U,
  0x3e35c749bf0b3074U, 0xbe98acd8bf6ba2a3U, 0xbf7386603e901d01U, 0xbe506b97bec450e2U,
  0x3f9a60903f55ec07U, 0xbf56745e3c2e5008U, 0xbea68f53be131bdbU, 0xbdf945fbbeebef59U,
  0xbf7278943ddc72d8U, 0x3e7655debec104d2U, 0x3ebecc493e7d06f6U, 0xbdcf3a2cbdd40141U,
  0xbbee34c23d2ad8fbU, 0xbec134e2bc823925U, 0x3dfe80903f599c8dU, 0xbf02dc9fbf58d172U,
  0x3f3b7dad3f359454U, 0x3fa8befdbe319279U, 0xbf5926d73de69c83U, 0x3f40883f3e813ea4U,
  0xbe63e3443e9ba1bfU, 0x3d5629ebbe84d903U, 0x3ee0f9663f5182b6U, 0xbedc6f4fbe8ad31bU,
  0xbe24d362bccb8593U, 0xbd9cb6a2be991f1cU, 0x3f5339023e576620U, 0xbf1416f53f725003U,
  0xbe02b7b2bed69345U, 0x3d888fed3efafe49U, 0xbf064c553efdee4dU, 0x3e83b823bee32ac7U,
  0x3d09ffeb3efe363cU, 0x3db99c003eb528bfU, 0xbe55ba02bea846ccU, 0xbedd4f25be7d2affU,
  0xbdd26b51bebfa72cU, 0xbefdd10cbe4b0c8fU, 0x3e7281ab3de747b0U, 0xbeea3c193ecec776U,
  0xbf410367bed9424aU, 0xbf3e86913e33ca68U, 0x3f3e3626be376277U, 0xbf3f9c963e604cb7U,
  0x3e491e483ebf9cfdU, 0x3ed886da3e561641U, 0x3eecfee53e715a88U, 0xbe08d20f3d7fdb0fU,
  0xbefd1bdd3dff15dfU, 0xbe0f8aa3bf359f5cU, 0xbf0e33bebd4f5b11U, 0xbdbf106e3dd34306U,
  0xbdf27df93f1b5d0fU, 0xbeab0ff2bf49376dU, 0xbecd8042bf1d95bcU, 0xbf3e2d483d838254U,
  0x3f52c79cbefd4bdfU, 0xbf157edabf509dc2U, 0xbe9939eebeb19328U, 0xbec15eb1bf0d34f5U,
  0x3e2b01a4be907e42U, 0xbec9e6f8bde404b2U, 0xbdbb122ebf673476U, 0xbf105938be6a9095U,
  0xbd64a1dabed58aa5U, 0x3da89d9fbef2143dU, 0x3f078e2f3ea81820U, 0x3d682855bcc5f03dU,
  0x3e9d269f3f00bd41U, 0x3eff5812bd8288e5U, 0xbf3731c9bed6a2deU, 0x3e24917b3fac7f62U,
  0xbdd8758e3e3e4f71U, 0xbc86820abeb93fe2U, 0xbdbbe426bf1332d3U, 0x3f148edb3eb2ce88U,
  0x3f04e159bf229874U, 0x3f8785593fb77a4dU, 0xbec54e5a3f605912U, 0xbeae883c3c51a6f3U,
  0x3e92178dbf0fd38aU, 0xbee3f7cd3e3fde57U, 0x3d0d9288bf0a2d2aU, 0x3f871dcf3c789ff9U,
  0x3df48e62be9dd4e5U, 0xbd67e0adbf4ab220U, 0xbf20966bbde25e99U, 0xbeb7086b3f26acacU,
  0x3edd5487bde05724U, 0x3e0b9f83be6f455fU, 0xbf240ebc3e807fc5U, 0xbea69a73be839ab8U,
  0xbeb91fb13c9ccca3U, 0xbea836a63f25a0c5U, 0x3ece7e7f3ee2bd05U, 0x3e863b67be562578U,
  0xbf4637b23e6b460fU, 0x3f0e8ef0bcfa1d70U, 0xbe128f8bbcdd5bc5U, 0x3eda9a393f10b990U,
  0xbd9d31ae3d244387U, 0xbebb84adbe82a87eU, 0xbe584e46becea70eU, 0x3e27b216be4d0609U,
  0x3e483e76bdf4cf5dU, 0xbf1800d5be25fba8U, 0xbd789d30be876f76U, 0xbf1e928fbefcea97U,
  0xbf22a18c3f06bc8fU, 0xbe1003b03e104bb8U, 0xbf2660693e03bf0dU, 0xbf2b6e2f3c7ecaedU,
  0x3eb4b0333e6710bfU, 0x3e347d24be9881cfU, 0x3ed83f9ebe37021aU, 0xbdb6d03a3e5fb2b9U,
  0x3d855c833d1a60bfU, 0x3f419cad3f0469ecU, 0x3e1cac28bd644c06U, 0x3f1ccdc6bf0f9d43U,
  0xbf2cfc5dbee073d1U, 0x3dcfbe1dbe6fd42aU, 0x3dd91feb3ebcfad4U, 0xbf1150683e7c0641U,
  0x3f27ec433d73b68bU, 0x3e200eb9be82d941U, 0x3eb66f463f08fd3eU, 0xbe703728be9ab396U,
  0xbf272842bd81b5bfU, 0xbe913095bd3e1a22U, 0xbf31546f3d0f4a6cU, 0x3e1065663d02e4a4U,
  0xbe012ef2bd7cec51U, 0xbf03a4f5bf30a6a8U, 0x3dfe7db8be09c138U, 0xbd231513bf735607U,
  0x3e34142cbd25a0bfU, 0xbf5d2d3fbd57bd23U, 0xbcc01f27bcd056d8U, 0x3f888bc7beaf5949U,
  0xbebfdea23d3fc4e2U, 0xbecf90c0bea60718U, 0x3da1b6a23f04cbf4U, 0xbe9cc11e3f50aa53U,
  0x3f50ed413ea5cca6U, 0xbd915293bf373c5dU, 0x3f1690b93fbb822eU, 0xbfdb32913e576c5fU,
  0xbf68c5ae3e70d079U, 0x3f8ed7db3f214d26U, 0xbd641d0ec00b010fU, 0x3d2d680a3f28a092U,
  0x3df9ffa33dc8e7dcU, 0xbf7adad7be93f8daU, 0xbd755ae5becdc703U, 0xbee7e7863c408951U,
  0x3e2af0cbbdb0d75aU, 0xbe0d9953bd1d46e3U, 0xbe661ca1bee5331aU, 0xbed6d2b2bf3f3039U,
  0x3e7c6629beededbaU, 0x3eca44883e495ee9U, 0x3ef0a247bd8fa18aU, 0x3d817d683e34c136U,
  0x3e07e6863f39d5a1U, 0x3ec99b103ded1e43U, 0x3d6882ca3e0b1f5eU, 0x3e87b3443d0fd081U,
  0x3e9b33b73e9de4abU, 0xbda0409b3f0f2349U, 0xbedf63d0bf0dacf0U, 0xbeb3a28fbf01de48U,
  0xbda5a002be4abed5U, 0x3db195453d235097U, 0xbec72a7b3f3412ebU, 0x3f39dca73debeb66U,
  0x3e954cf63d095c72U, 0x3e08a4f53f39059aU, 0xbe297eeabe75a970U, 0xbf087f0abeb5e1b4U,
  0xbf02689dbf437bffU, 0xbef2ffccbe903caaU, 0x3f3b9944bef20295U, 0x3d9702d03e844e03U,
  0x3c25a6a33ecdacceU, 0x3f1bda413ddb61dbU, 0x3ef57f4c3e8c55e2U, 0x3f369bf73f5b4e36U,
  0x3f0bcd49befa9aabU, 0x3e8fb3f83dd16356U, 0xbf59e5e53f66880fU, 0x3ea6cea3bf1e6270U,
  0xbea2a7febda963cbU, 0xbf39ed74be52b437U, 0xbf1adfc03d7225d2U, 0x3cb25afd3fc38d47U,
  0x3a455f5b3f58cca4U, 0x3f000e103f33bcf8U, 0xbecd864f3e9fcde3U, 0xbcc4d3e0bee504fdU,
  0x3d725606bf041f11U, 0x3f277eea3f0a4139U, 0x3dbd53a33e14cf05U, 0x3daa128f3e683f24U,
  0xbf1955a03dbbc739U, 0x3ea0b3c1be9dc3e7U, 0x3e9778b03f1f99f5U, 0x3e17aa1b3e1b3848U,
  0x3d758184be8ff32dU, 0xbe3136643d80b773U, 0x3db41b143e6e248bU, 0x3fbad5d6bfb4931bU,
  0xbe9d73afbe2f94ecU, 0xbea848033e392f75U, 0xbee6a90cbeb8db79U, 0xbf6251033f250294U,
  0x3f61da52beba6060U, 0x3cc448d5c006b648U, 0x3f9031ac3f6a15a5U, 0x3f51ef583f3d9768U,
  0xbf2d4b083f72418cU, 0x3f25eecabf458f2bU, 0x3f749781bf3f8fe3U, 0xbe96b079bf8d4714U,
  0xbe5ee10dbebf5508U, 0xbec2fd99beab7f1dU, 0xbdcc17263e72b571U, 0xbeef7a02beadf469U,
  0xbdf009443f098e0fU, 0xbf0c934bbf21283fU, 0xbefea7953d07130bU, 0x3f6c14203bb611a5U,
  0xbedb2544bec1b333U, 0x3e78f4ec3e997844U, 0x3f2e5ae83f5aa8d8U, 0x3f150d98be59ad58U,
  0xbf01c6fd3bf60e7cU, 0x3ec739803aee67c5U, 0xbd9474473edea85eU, 0x3e203a113dd14832U,
  0xbe94e027be9a24faU, 0xbe25e125bdd8a60bU, 0x3e04264e3e9255c9U, 0xbf2599a3bd2197caU,
  0x3efa900dbee1efefU, 0x3e2bc2223ea7fb80U, 0x3e934f38be8222f9U, 0xbd9f5c0f3f137789U,
  0x3f25afef3ef465feU, 0x3eae0f5cbf1b2d4cU, 0x3cf528bcbdc1e2f3U, 0x3daf6c833e65d3a3U,
  0xbefbc68c3d8c0a87U, 0x3d884cfd3e3ddd2bU, 0x3e8ee236be2dde6fU, 0x3e61f4a1bef3a593U,
  0xbec0f8bd3eb6f62fU, 0xbe9f0525be0f26ecU, 0x3d666ba63ca45ac8U, 0xbf01296e3ec48678U,
  0xbf088518bd9ae5a9U, 0x3e3f016d3f0777a8U, 0x3e42c4cdbe192c58U, 0xbe7dfd10beb17bd7U,
  0x3e8c87e0bf47cf3dU, 0xbdee5a203e6592ccU, 0x3eb6af7ebe252cefU, 0xbe23813fbe3ffeb3U,
  0xbe87498c3dbfaf70U, 0x3edd7e523cd729daU, 0x3e5e9ddcbe0041d5U, 0xbf6ca4bf3f021644U,
  0x3f2ffb323e00a02cU, 0xbeb89051be588f7aU, 0xbef7c029bdd2bd41U, 0xbe6ad8a7be32cae1U,
  0xbebfd3b7be5570c2U, 0xbc550256beac0c3bU, 0xbd8b17953ebb577fU, 0x38f70b983e9479c7U,
  0xbde7ae23bebc6623U, 0xbde17283be8f60a2U, 0xbc416dcebe740a0aU, 0xbf1d0c783deb84f8U,
  0x3d6900d1bf259db8U, 0x3ed2258d3d8d7cbbU, 0xbf12620e3ea0a2caU, 0xbe99dc633f2273d3U,
  0x3d8f72723e4d9efbU, 0x3ea0a62d3e3895f9U, 0x3c9f3895bdd4156dU, 0x3c1ab0b3bc3c2297U,
  0x3dd324b5bea0569aU, 0x3da370693ec3e876U, 0xbc2ca6b33f61a4aaU, 0xbf796814be6e0b83U,
  0xbf1787b93db744bdU, 0x3f04a2d1bed13c1aU, 0xbda3e2efbea5b16bU, 0xbc168e973eb667d7U,
  0x3ea224d73ebab39dU, 0xbc83f6933d7ae610U, 0xbb1fb68d3ebce581U, 0x3f108faf3ebdeaf2U,
  0x3d0046e33ea2ac75U, 0xbd999466be2bfb97U, 0xbec06ade3edf87f8U, 0xbf0ccafbbee8b063U,
  0xbe305ea9bf445e17U, 0xbddbb5a8beb17527U, 0xbe9ffd3fbec0d7cbU, 0xbf19e835bdad9013U,
  0xbf062232bee72ec1U, 0xbe9798153e2d0a95U, 0x3ea9a7523e8cdf8dU, 0xbb5f40993e96fea2U,
  0x3c0b2ee43f455456U, 0x3d478ac03da7fc8dU, 0xbe77851cbc84178aU, 0xbe2c3725be6598bfU,
  0xbf138291beec8ac0U, 0xbe994c5cbe5ae798U, 0xbd8459d4be8b3826U, 0xbe0b7cb7be074fa9U,
  0xbd95c1ccbecb8de6U, 0xbcf909a4bd9e1715U, 0xbdc9aab1bee18bf5U, 0xbe87c3e4be5fa85aU,
  0xbe34d64cbe611faeU, 0xbe19bfb9be4afaf7U, 0xbe5676d7bde16744U, 0xbe986c13bec8aee4U,
  0xbd64acfebd2c3903U, 0x3d071582bed81c73U, 0xbd879b2c3e61c9b9U, 0x3fdccd733f97de72U,
  0x3fcf5f58be96856eU, 0x3edd772c3eef0cd2U, 0xbcd58bb13fb21458U, 0xbcfbbc62c003519bU,
  0x3ecf3f32bc65bfe4U, 0x3e7dd3e33d4b9bc3U, 0x3f5bb6223d43d4ceU, 0x3ecd2e1f3e474cc8U,
  0x3f95e2e83e7b8de4U, 0xc006f01fbd9532d1U, 0xbb78f2babfa16f19U, 0xbf81f27f3e8f9126U,
  0x3f90b74ebf048239U, 0xbe9c0ea5be15a87fU, 0xbe3249f7bec8dbafU, 0x3e89a829be9753e7U,
  0x3fbbaec63fb4c35fU, 0xbe64cd753f2c58edU, 0x3f505229beff5a18U, 0xbf6557ddbf4b4e9fU,
  0x3f3acc26bf0d1d6cU, 0x3f860b323f19dc2fU, 0xbe7f821dbe219bf6U, 0xbeb3156dbdd85807U,
  0xbeebdaf7bea28be6U, 0x3d3a9d8b3db624dfU, 0xbeb01bebbe8328e2U, 0xbde290b83f42a018U,
  0x3f101b183e5c6ad0U, 0xbee08d9b3f8efc6cU, 0xbfb4b26bbf306b1bU, 0xbf2f21263f0823e5U,
  0x3f6b0aaa3f0c5d2aU, 0x3e9a93d3bf3ae335U, 0x3f19e8153f1d4f90U, 0xbf58dbb1bced2b63U,
  0x3fb7c7a8bf4a1705U, 0xbe8366dcbf5b5d03U, 0x3e056c363f021c42U, 0x3ebcf83f3dbca489U,
  0xbe04911abe81ced5U, 0xbf1c192dbebc209dU, 0xbd8cde34bedcde9dU, 0xbda190eabf132537U,
  0x3e9e01773f173ec7U, 0xbe4c7265be890bf1U, 0xbd245cdbbd8e5d8fU, 0x3e9098c23eb477e3U,
  0xbea8be273ed17fbeU, 0x3f5ba9c3be9c43b8U, 0x3e72ff543ec74b6cU, 0xbe528cfa3e7ad0f1U,
  0x3f962b453d877a51U, 0x3e58284cbe19d98fU, 0x3bdc98fe3cc62848U, 0xbf3bd41f3e6875f7U,
  0xbe5ee82c3e678b07U, 0xbe4f119c3e261c39U, 0x3de01f5cbc681e73U, 0xbd7fac0ebebf1f5bU,
  0x3ddd02aebecc7af3U, 0xbed4995bbe387df9U, 0xbed992113ea00a7bU, 0xbd051e36bf84cd9dU,
  0xbdd66e313efeb5e0U, 0x3d64517d3e4a3288U, 0xbf4bdc453e5c0968U, 0xbf080f68bf1468ddU,
  0xbe7eed52bd342ffbU, 0x3e23ef803f099916U, 0x3f70144fbf9d47beU, 0xbe2cc5683f688841U,
  0xbe66452a3e739a2eU, 0x3eff295f3dd2dd8aU, 0xbdf424013f8d4f06U, 0x3f056098bc338464U,
  0x3f538084bf0516baU, 0x3f20dc2bbe7c01c3U, 0xbf275b713e6a8acaU, 0xbdcc9297bdc907d3U,
  0xbe6e27eb3cca8847U, 0xbc2b39d8bf128be9U, 0xbe0ea32fbea3c360U, 0xbdc7987ebdb97e63U,
  0xbdccb8733f5fc492U, 0x3cde781fbdc5ea15U, 0x3f2fd7633ecabdbdU, 0xbf6a7995be81cf39U,
  0xbdd0801e3de7646aU, 0x3e9d8e1bbec849f3U, 0xbeb0b89d3e738f63U, 0xbd7c054bbec76a85U,
  0x3e40c369bb658be4U, 0xbe3ed7aebf772a21U, 0x3e69b30d3d86da0bU, 0x3e88820ebf3e04f8U,
  0x3f4286bf3efe0b6eU, 0x3f50012e3cfef18cU, 0xbfa57fe2be81505dU, 0xbef6e34cbd2ae212U,
  0x3e5e0f8abee302f6U, 0xbf114b66bea51f0cU, 0x3ea55de9bece2043U, 0xbf868f363ee50f2fU,
  0x3f3c0a7a3f70eb78U, 0xbe81fd4ebf2d8507U, 0x3f06b6213f8b035bU, 0x3e443b493dc6a632U,
  0x3e83c2d93dd0a337U, 0x3df55bb53df8977cU, 0x3df9c46a3e51346eU, 0x3f86abf13d1c4b88U,
  0xbf706e813f09bf6aU, 0x3f1ce99e3ec200aeU, 0x3e5118b5beb0f0abU, 0xbf59510c3eb288baU,
  0xbe7930efbd713ec7U, 0x3dd58c1abeaa971dU, 0xbee88093be817e49U, 0xbec7418bbe58de40U,
  0x3e8ddd5cbebdc694U, 0xbd3ae9f03e356420U, 0x3e43ab213e33761bU, 0xbcf01f383dca5dc8U,
  0x3e590da13e2ee0a5U, 0xbf2bb377be906457U, 0xbea2c26cbea27557U, 0xbe5bdb683c8a285fU,
  0x3e64ed4dbebedf64U, 0xbe533d28be56fac3U, 0xbee15013bf3772ebU, 0xbe83f9013dd4f30aU,
  0x3dfd217ebd13e6aaU, 0xbdbd9a1f3c4dd70dU, 0x3e5115ae3e8ed964U, 0x3d77af2bbeac42f6U,
  0xbdf1fb7fbf0283aeU, 0xbea677e9bf25a7afU, 0xbd9b65cabef4f8adU, 0xbd1f308e3d4e4c17U,
  0x3e10db433e631d27U, 0xbf1c508fbe801ab3U, 0xbf185551bef22743U, 0x3f9874f73f8e9accU,
  0xbe9a73b13f60efdeU, 0xbf1581f8be3110e8U, 0xbf1828953e42e6f9U, 0x3e1196b5bf5605ebU,
  0xbe84e4e4bf090bceU, 0x3e18c6d43ef8772dU, 0x3f19955bbc2688bcU, 0x3ea1e4013f0ebfa2U,
  0xbe296210bf22faf6U, 0x3e7f8e68bcaf6560U, 0xbe8cf704bdb365faU, 0xbf26611e3eea6cc5U,
  0xbdbdd3d6be7dd9adU, 0x3eea95153e2fb5d0U, 0x3e0f13a73f5575f7U, 0xbebe4e593f16f20fU,
  0xbf0942a73f8eef0bU, 0x3f2d27963e15319eU, 0x3f01099ebe60fbf1U, 0x3e8054c63eee1d18U,
  0xbeebb9f3bdab3a88U, 0x3f54c8a2bea8b45eU, 0xbc608d583f082884U, 0x3c833244beccdf3fU,
  0x3ec3a21dbefe7ed8U, 0x3e8cd1db3cfd4b3bU, 0xbedd79fcbd5570e0U, 0xbeb1490dbe9e39f6U,
  0xbe9cc7a6be1460c4U, 0xbf0ae905be8775cdU, 0x3dc6192cbeae52d2U, 0xbea1fac03de477baU,
  0x3e41910b3ebe22d5U, 0xbef95c013f47a3f4U, 0xbf5d1922be8a0caaU, 0xbef8d4f8bed3349fU,
  0xbefbdddf3f52978eU, 0x3edebab13f3f84a9U, 0x3ef838203f163e27U, 0xbf0af80dbedd93a4U,
  0xbf265eb53ec0d3c1U, 0xbe8042fbbe9fe78fU, 0x3dc782fd3fa792e8U, 0x3ef345873e2fca6eU,
  0xbe10e8e83e2ef8b9U, 0x3e30dd85bee66c11U, 0xbd20960b3e97e221U, 0xbe8a03363f501ad5U,
  0xbe81a78abe4a82cbU, 0x3eb4b8ddbe820be4U, 0xbdbfdb673f2d274dU, 0xbd671d753eae2a89U,
  0x3e97ca25be9970b7U, 0x3bb0119b3dcf3bedU, 0xbe07eb693db9ce54U, 0xbe53d7e5be8e1db2U,
  0xbe2ed215bcf88f6cU, 0x3f5d10773db7819eU, 0xbe976efb3e07ff70U, 0x3ee9a0d33d633574U,
  0xbe633ebf3df85621U, 0x3f2513953d65a497U, 0xbd45ae76bf102ef3U, 0x3f19a0e83f02e5f1U,
  0xbf02d7a3bd943427U, 0xbec547e9be82aa66U, 0xbea7a5353ed343adU, 0x3eaad916bdce91bcU,
  0x3ca44b08bf2fae6fU, 0xbe912e7bbedc6f13U, 0x3dadd9e53bcc42deU, 0x3e79f6e3be9c97baU,
  0xbf09ae213ea39d3bU, 0xbeeeab83bddfbb40U, 0xbe2aef1fbdffbf0dU, 0x3d3a16a03e79e980U,
  0xbd61bc3c3d7d8047U, 0xbe1f9eb3bcdaa94bU, 0xbe5b9294be8ac927U, 0xbe99dc32be9d5d60U,
  0xbeb447103dd0fdeaU, 0x3e921a7bbec98222U, 0xbec6b0133e31d2b8U, 0xbf0aa0893d37b4beU,
  0x3da9f8abbec76b92U, 0x3ec143a6be0af264U, 0x3e313a083d6e67a6U, 0x3eb1dc34beb66ad2U,
  0xbebf4889be0737a7U, 0xbe7dbc703ea85d4aU, 0x3e8fa44e3f2b6704U, 0x3e82657b3d78625dU,
  0xbe91bdb3bea06347U, 0x3e586c183e07f566U, 0xbe0c08533d6f66a0U, 0xbe90cb543dbde43eU,
  0x3edd8bc13d0b4460U, 0xbeb197a83dab3bfdU, 0xbf0b7b1c3ed7f043U, 0x3edf3aa63e3b7145U,
  0x3d9791e13ea86ae3U, 0x3e1dff3abf16c3dfU, 0x3d458e57bc9b0360U, 0x3cf4d32e3e3295d4U,
  0xbedab275bb9569a0U, 0xbd980d12be897b0fU, 0xbf0e78d4bef5a379U, 0xbe688da6bf18c99fU,
  0x3f65955e3c4e29afU, 0x3d7021d43f5e9ff8U, 0x3f424a6d3e96c47eU, 0xbe85c298be8b50fcU,
  0xbd88e19cbe46c945U, 0xbebd0552bed7d47aU, 0xbe8ae8ffbded89beU, 0xbeb50c0fbeced117U,
  0xbe9ea05abe198d39U, 0xbd5601fd3eac2bd5U, 0xbd6b865cbee642dcU, 0xbf4bfc33bedd7b18U,
  0x3ebffc233e94bfa8U, 0xbea84d6d3f3cd050U, 0x3dd7e0ecbd8cfde0U, 0xbeccc4c3bf2c0542U,
  0xbed68179be4bf27dU, 0xbe0a66b3bf502dd8U, 0xbefa329cbf0008afU, 0x3e8c9b50bf1e5a85U,
  0xbd12c84d3e048c1cU, 0xbe313e7abd88bd3eU, 0x3d83399dbe5611efU, 0xbe7682a1beb99a79U,
  0xbe7f966ebd2d32a5U, 0x3e6ea9fabea11b71U, 0x3eb7ec723ec1c0bdU, 0x3e37db1d3dfcc75eU,
  0xbdc42a393e8f5c5eU, 0xbcadcdb3bc99a791U, 0xbef9a171bf075d12U, 0xbed9bc46be98eba6U,
  0x3d6a1301be7e0b60U, 0xbd46c8c2bea63013U, 0x3e66e2993d468015U, 0x3cf4a0e83e584d3cU,
  0x3e82db7f3e87d108U, 0x3e6aa3d23e47cfc4U, 0x3e54eb433ea722a3U, 0x3eded107bd13bd5eU,
  0x3e4695af3ec0b588U, 0xbd4eae0f3d951a55U, 0x3e6fa52e3e940a6bU, 0xbfca98433e2fe623U,
  0x3fccf1513dd420e9U, 0xbf2888c93f2da70bU, 0x40254d353ebdffeaU, 0xbfe1e377bf266b22U,
  0x3e90b0b43ecdb5ddU, 0xbe254b943e83c631U, 0xbcabd98f3e6d3fbcU, 0xbe0741aa3e9e2796U,
  0x3ee39fa63e937590U, 0x3e030db93e28b41eU, 0xbe8fc204bec172c7U, 0x3ded7861bf01c68eU,
  0x3f0b16ec3e3f7d30U, 0xbe22dddbbda03f84U, 0x3ecca471bed42fc7U, 0x3ee151323f28fae9U,
  0x3e9ee85d38e9128dU, 0xc02900663e30c7a2U, 0x4007e1ab3ef72afdU, 0xbec0c04dbf9ebd82U,
  0x3e42dd913fd5bf48U, 0xbf1eefacbdf06016U, 0xbe73a69dbecabe74U, 0x3d17c2dabeccc64fU,
  0xbee78a183de5e0dfU, 0xbe940510bedcb00cU, 0xbf42a426befe5bcfU, 0x3e1460eebe20cee9U,
  0xbeb701c7bed704d9U, 0xbe0a594dbe8feba7U, 0xbe95de0bbec84e7cU, 0x3f416ade3f7c7fd0U,
  0x3f79194ebc8060b0U, 0xbf176b653fcc23b9U, 0xbf7a7c2f3fa64de0U, 0xbed4d634bf681adeU,
  0xbe0e9a73bf48ab90U, 0xbcfd468bbd806a96U, 0x3f90028f4010aa8aU, 0xbe9c5ea9bef37deeU,
  0x3e9b44e73bd0f16fU, 0xbe65905c3d58b77eU, 0xbc94045abd9a99b5U, 0xbf007d4dbe55b171U,
  0xbe858b8d3f2efe8fU, 0xbe8744593ef45c83U, 0x3da009643e54de19U, 0xbe50c7d6becbdcb4U,
  0x3d06d44fbe90c01dU, 0xbdef93803e5ee50cU, 0x3cfd902e3f0bc330U, 0xbecfc677bedd9f75U,
  0x3ef48b103ee34619U, 0x3eac72823e8059e1U, 0x3e2a25fabf3c26ebU, 0xbd3acf8ebdae8e64U,
  0x3e9157b6beaa37f1U, 0xbeb3c800bf459606U, 0x3f1eac9f3e3bf020U, 0x3f11d7f33d9c4e06U,
  0xbea3b43b3e5fbe18U, 0x3f12cc65be3b2fadU, 0xbe732805be392bf8U, 0x3f5405203e55a0dfU,
  0xbf1acb323ecbd27aU, 0xbf1346873ed18dd5U, 0xbe11824b3d316ca1U, 0xbc347f533e2fde39U,
  0xbf040ed53f1d16c0U, 0xbde7e7bc3ea9ad23U, 0xbedc258e3eeafd7fU, 0x3d6ce44dbea21f1fU,
  0x3abbb9d33dfd3564U, 0xbd21020d3e4b82a2U, 0xbe2a8f753e6174e4U, 0xbe8aa8653e30b1beU,
  0x3e71cd263de7f33bU, 0xbd99e0973f12cc74U, 0xbe014a85be50380eU, 0xbe11de4cbe23feb1U,
  0x3d6e2ede3df7ffb2U, 0x3ea138663ecd0e52U, 0x3e1a72773de62b0dU, 0xbeca08243c1849cbU,
  0x3db41437be94dbbaU, 0xbf1f46823e7f1210U, 0x3daf3628bf23e89aU, 0x3efb0382beb0c132U,
  0xbec17abd3de1b0d2U, 0xbd1915133f03ac66U, 0xbb17df453ecaea65U, 0x3e972152bda0deb7U,
  0xbcac9b2dbe1f35b0U, 0x3f5b2b8dbed3f3b9U, 0x3e10da6cbdf48615U, 0xbf871f943dbd8a82U,
  0xbf5b28d9be718bdfU, 0x3f8265253d37e070U, 0x3dae7611bddc9467U, 0x3f617fd5be9dba52U,
  0x3cdfdb0cbe726092U, 0x3eb74b41be3f5ad2U, 0x3e5c654abeac74e4U, 0xbe545946bd0c5115U,
  0xbf5742d93e84ae60U, 0x3f1e7c28ba56b8c7U, 0x3ec0f425bd8b870cU, 0x3ccee12f3cf1ff11U,
  0xbc0c16a73ec53c06U, 0x3ea0c1123ed48490U, 0x3f0538d53ea17f2fU, 0x3cab2345bd4b9d2cU,
  0xbe44d6eebdf5c58cU, 0xbe3bb099be0acda0U, 0xbe7943eebe2bf1f9U, 0xbe140a02be5a7c97U,
  0xbdfcd819bf5096a1U, 0x3e16f331bf062311U, 0x3ce5e0103e7acd16U, 0xbf8b27133eff06feU,
  0xbe2eaa6fbeec0e14U, 0x3f014c353e4d6cf5U, 0xbdfd3f4bbe0eb720U, 0xbf627e193d5ecc29U,
  0xbf42d591bf35a8b6U, 0x3ee7c2f63e4880acU, 0x3ea749e43ec108a2U, 0x3ec860ea3ec02d32U,
  0xbcd53fa63d1b5af6U, 0xbf0fb0193d070ffbU, 0xbf5bc08fbf218c91U, 0xbe94e0f33f2623a4U,
  0x3fbab7c7bf6ede03U, 0xbe2da2943e9b2e7fU, 0x3decb59f3ea7e8f1U, 0x3e1f3ac93db9d28cU,
  0x3e305bb0bd6ff260U, 0x3eaf1c9d3e19f4ecU, 0xbe9505763f390b5bU, 0xbf277e8dbf4b82b4U,
  0x3dd7f9653d4891eeU, 0xbd9de3d23e2374baU, 0xbc0bd927be735db5U, 0xbe69fb9dbe61590aU,
  0xbd99307ebc41fd62U, 0xbd87243fbe66f696U, 0xbe02e761bb590cd0U, 0xbf0336c7beaeb3dcU,
  0xbf62f8ccbf05a0caU, 0xbe50a21bbe8342d8U, 0x3f3a5e20bfdf860bU, 0xbeed80683e4a15fcU,
  0xbead42fcbe86e217U, 0xbed8ab7ebe8b7ca3U, 0xbda4c312be981242U, 0xbdc808b6be07be1cU,
  0xbf50bdc13e3399b7U, 0x3d9a6a393d044ea0U, 0xbc9ede183ee83d00U, 0x3fbbe486bd929ad1U,
  0x4003b3873f88c124U, 0xbd309891bd027177U, 0x3e86e94b3e0b0803U, 0xbe71e4f43ec533a5U,
  0x3f1a9ad43cf925c8U, 0xbe779fa23b3211b6U, 0xbebb394abe82979fU, 0xbe9cefa5bdfa117eU,
  0xbde3ad19bdc1e381U, 0x3d9a44723e0b8822U, 0xbef2bc0ebd925f5dU, 0xbeffb51abe145284U,
  0xbdf1b140be8ba930U, 0xbd8734debf0ddcd1U, 0x3db05f76bdd57419U, 0x3d324f783e16e69fU,
  0x39b7ca3e3e316b04U, 0x3dbf8c4b3da9d217U, 0x3dc878d23d3a3410U, 0xbccf5c5bbe985c06U,
  0x3f63a01b3f2529e9U, 0x3f9758dabf107fceU, 0x3e39e465bee7230dU, 0x400106bc3ed41b54U,
  0xbf37cb6b3e8237f1U, 0x3fe7e1c3bf093727U, 0xbf86872f3ef72f8cU, 0xbc9a9d0dbc3686b4U,
  0x3d06e411bceaeb2fU, 0x3df85ea0beb9dea7U, 0x3e28390fbe056a4bU, 0x3e5b554e3bc48f42U,
  0xbd989d2f3eb2564cU, 0x3cdfb4dcbc46da73U, 0xbd9ddf6cbd5d41d1U, 0x3ec943a0bda85170U,
  0x3e04c6093dd580f7U, 0xbf2d608b3f271d31U, 0x3e44196bbe546f9eU, 0x3cbe20883d29b30dU,
  0x3da263c0bd87fdd8U, 0xbdd93085be27a54bU, 0xbc2c5897bc5d936aU, 0xbe2bcf6ebd24e8c4U,
  0x3da8d6f2be0f1e2bU, 0xbe71e1a1bf1f3677U, 0x3ecafbddbcd1ad8fU, 0xbe9d0060be0e317dU,
  0x3eb420923ccbbff7U, 0xbdd26717bed52287U, 0xbefc30afbed22915U, 0xbe6ba508bd8d5c3eU,
  0xbe777ae13ea8d7ceU, 0xbe1e6bb4be8c3117U, 0xbd7f90b5bd9569ccU, 0x3ef550723e64db13U,
  0x3d83146abcfde890U, 0x3ca33ccebd6ef8acU, 0x3f0f72643e1f3c8aU, 0xbdb824c73f02e5b7U,
  0xbdd26b2e3e84ea9dU, 0xbc9a35cf3e8f74b7U, 0xbdd366dfbe092dbdU, 0x3e829678bd172a38U,
  0x3e0fb953be5189fbU, 0x3d5d5fe13e9f1910U, 0x3d9c47b0bd263889U, 0x3da21294bf103e39U,
  0xbed59d523f149829U, 0xbe2ed023be6e0a5aU, 0x3e00a306beb1c66fU, 0x3db85c5bbd95d278U,
  0x3f0553f53ec92466U, 0x3e2842f63daae76dU, 0x3d310331be2e72edU, 0xbe64bbbdbe23018dU,
  0xbd23afeabe4a260bU, 0xbe2f89be3dad3880U, 0x3e76e7593f21f975U, 0x3e5dc657be42deb2U,
  0x3e7e3a5f3e84d674U, 0x3e2844f3be703545U, 0x3cd82a4fbe3f0106U, 0xbd8b0261bec11ac9U,
  0xbe59a3303e053fc8U, 0xbe2c30c0beb57628U, 0xbda270733d4cb1a3U, 0x3e64ab6dbbe7bd93U,
  0xbf170e583e1b13e5U, 0xbecfebbbbdfea0c0U, 0xbe9644993d894ef0U, 0x3ef1d427be154c7aU,
  0xbaaee55e3faa8ae2U, 0x3ee16b5fbf1f5269U, 0x3f4eb1b4bd0025beU, 0xbcdae28fbe35bb60U,
  0xbe20d080be021589U, 0x3bf07afb3bf4d2ddU, 0x3dc70090bcc07de0U, 0x3d9e8066bdaefef6U,
  0xbdc1e813bddbadfeU, 0xbd4860a2be0156cbU, 0x3cd471143dd223daU, 0xbd2c9493bdfb736fU,
  0xbda1c13cbd3db141U, 0xbd34a2b2bd6a7f7fU, 0x3e0ac53ebdb1664aU, 0x3cc2a012bd6652dcU,
  0xbb0cfacb3d9be3e8U, 0x3de3b827bcbe1cefU, 0x3da8b32b3e03d4fcU, 0x3dc7c30b3c955926U,
  0x3c1ecb77bdb795c4U, 0x3df9dd393b226477U, 0x3d8a0fea3dea4131U, 0x39b61ccfbdede272U,
  0x3cd429af3baade73U, 0xbd6fa99ebd191f73U, 0x3d546cbb3d085838U, 0xbdba56e23d58ee0eU,
  0xbe497038bcf17f1bU, 0xbe1a60ebbd8299d5U, 0x3c96343cbcb78354U, 0x3bf6b9a93d29522bU,
  0xbc511f09bdbcefdaU, 0xbe3eb89f3c90137cU, 0x3cb2481fbdc1d0b1U, 0xbce247f6bc0178ecU,
  0x3d8dce1e3d9f3039U, 0xbe04a9393d3457aaU, 0x3d261ac9bc188365U, 0x3be496f7bd7f3e34U,
  0xbdfb01d3bda226b1U, 0xbcf3fc253da17c3aU, 0x3d550b39bd08ce77U, 0x3d597146bd46e478U,
  0xbdcf252fbce73814U, 0x3e27f26a3d3411edU, 0x3d12a10dbdd36638U, 0xbd0a557fbceaed15U,
  0xbd921c6bbbff1bf9U, 0x3d8412b33d15aec6U, 0x3d79f809bd7b0a30U, 0xbc13e08d3ca19670U,
  0xbd2026c23e05a673U, 0x3d7b4837bdded6bfU, 0x3df7d9c73d37c3ffU, 0xbbc5d8353d8849ffU,
  0x3d12a358bd4791caU, 0x3bf030613d63cec3U, 0x3dacab17bde635c2U, 0xba33b7a43bdf3e65U,
  0xbe0e5c373c00d2b3U, 0xbd37aec9bcf9918bU, 0x3e35bb753cb1f3f8U, 0xbd902e553ce7abc4U,
  0x3ae0f56ebb5835f8U, 0x3d3c1f15bd924ba5U, 0xbd0bc4763d3c437dU, 0xbe12596d3d4ce1e6U,
  0xbb717493bd1fb913U, 0x3c9bd45a3af4f250U, 0x3e309eabbdb14100U, 0xbd72efe3bcb642caU,
  0xbd36f2723d03deb5U, 0x3dc5e0a2bd8f0d67U, 0x3c937056bd08c80aU, 0xbd090f06baf7c878U,
  0x3e476e33bcfaa06eU, 0xbd0243fdbc5dfdfdU, 0x3d96bb5cbb9e3847U, 0xbd12e8fbbdefd472U,
  0x3dbbf0dc3d978252U, 0xbd164a03bde0ece4U, 0xbd2dbe17bd06debdU, 0xbd08b890bd812b5eU,
  0x3de99d583cbecd61U, 0x3dae1090bcb45711U, 0xbb91383c3c9fd783U, 0x3db55484bd8bddd7U,
  0x3e524935ba9332e4U, 0x3d834ea83dbbc495U, 0xbd6876cebbd68aa2U, 0x3c14810fbde62173U,
  0x3d65e9bcbc87ce51U, 0x3d329c51bcc10e90U, 0xbc3c2a8fbcf82fb3U, 0xbd02aa57bd655dd5U,
  0x3db68d3c3d7d2825U, 0x3e225bc9bde35f2fU, 0xbddaca253dd70b94U, 0x3d21d2be3cad72a3U,
  0x3d9cc303bc530591U, 0x3d5b00383d3e6c82U, 0x3befe51f3d790dc0U, 0x3d6f4baa3dd2d576U,
  0x3c2d5ebdbd0527f9U, 0x3d64b67abc6921dfU, 0xbc2d250d3d9e081bU, 0xbd8077afbd3eeadaU,
  0xbd6fa2f23daf245eU, 0x3dd6ca62bdb83218U, 0xbdc6fffa3e09096bU, 0xbc66ea013e3f9df6U,
  0x3db00d4abbbe3c9dU, 0xbd1afdc63dbf67b4U, 0x3de071863d14584fU, 0xbd81e824bda04d42U,
  0x3e04a801bb7f3a21U, 0xbd610f9fbd4a95b6U, 0xbd020726bd65b8b2U, 0xbdca37cdbe11ebc2U,
  0x3cdb2368bbaa9e7fU, 0x3debcfdf3c3b4c72U, 0xbe227eb33dd50625U, 0xbdeffea43d316f40U,
  0x3e0326e5be16f07eU, 0xbcef5866bc980c02U, 0x3d9b6417bdcc3b7aU, 0x3c9b6e3ebd2dae23U,
  0x3ddad259bd32851cU, 0xbd82010ebd4c0f80U, 0xbe0b0a0abd548c54U, 0x3c799f89bddb8ea1U,
  0xbdb2042e3df7de7aU, 0x3e0a2cb63c33c8acU, 0xbe4dbf463e37ee6eU, 0xbdc41e29bdadfedbU,
  0x3d6c4022be0c578fU, 0xbd7ee521bc23dd9fU, 0x3c1b8ad1be160876U, 0xbdb48079bdc3d32aU,
  0xbcefa6a93d99d2acU, 0x3d65909ebdf97da9U, 0xbe05628a3b1ab82dU, 0xbd48bdcdbc90fcacU,
  0xbdfd0d293da674d5U, 0x3d901d0ebd68fec5U, 0xbd8b45653e2d208cU, 0x3d587a51bd369c96U,
  0x3ca184673b04becaU, 0xbd8d31cd3b7e3fa9U, 0xbc39eb593dbe6cf5U, 0x3d60edb4bca8138bU,
  0x3dc8132eb7232c91U, 0xbd10ca473d535d1cU, 0xbca8beb13d39f956U, 0x3d7601063c217a0aU,
  0x3d44faef3d0dfbdaU, 0x3d2a752cbd4bb2c7U, 0x3ce406aa3d45517fU, 0x3e19be93bca415d1U,
  0x3e0624493ce0091bU, 0xbc19a6943ba32e79U, 0x3c1f2b373c3905efU, 0x3e023bf7bd7ed338U,
  0xbb4fb1733c253a91U, 0x3ccd69a93dccf70cU, 0x3d43dec93d378868U, 0x3d5156ec3bb8b2b5U,
  0x3ca38b4fbb8a9290U, 0xbc2b8caa3dd97224U, 0x3c50535e3d858efaU, 0x3da5aae1bd3563a2U,
  0xbd6b2f723cf44956U, 0xbd073f7e3c4a98c2U, 0xbb691e2b3ce7e6bbU, 0x3db90f573acd701bU,
  0x396949013cdc7ae2U, 0xbd16d5643d407f7aU, 0x3d84e3693d5b9b4dU, 0x3d3e5343ba7922f5U,
  0x3c3c31c2bc635fd6U, 0x3d38d3a03da5f6fdU, 0x3d3f8e05bc8e8761U, 0xbd807a753b9c69ddU,
  0x3dd7fa62bda98507U, 0x3e010141bd2f7f3dU, 0xbd912c643e463755U, 0x3d158a6b3cdf8669U,
  0x3e3bab8abcddaf48U, 0x3e09414b3c7ae978U, 0xbe1227933dcc763cU, 0xbbe26eda3d6a2cbeU,
  0xba8b181e3da40b7cU, 0x3e09f7e5bcdf98c9U, 0xbcd3dfe63e01bb48U, 0x3b0e47f1bc5ecd4dU,
  0xbce9adf8bd96e7bfU, 0x3ce2f1233a059689U, 0xbe1c1100bc51ca10U, 0x3dec94c2bd9d8582U,
  0xbcafcfe9bd1886b0U, 0x3beef7743c97796aU, 0x3d1fa1afbc9681ffU, 0x3d1e254fbd5d9123U,
  0xbd5a3ef8bd347dffU, 0xbdae994c3dd0625cU, 0x3d346134bd856e04U, 0xbdb0604dbe05417fU,
  0xbde3756fbcd144d8U, 0xbcffa229bce296f0U, 0xbd52248dbcca6512U, 0x3db8ee31bd2f8689U,
  0xbdeeeccfbde227e8U, 0xbd6692623d6cf49eU, 0xb98afac1bd3af071U, 0x3c2f0b17bdfb07acU,
  0xbdcf0262bda22c8dU, 0xbd8410c63c44b258U, 0x3c5a3ba7be06dd6dU, 0xbd5345503dc69bf5U,
  0xbd8b212dbda3bdf8U, 0xbc96dfacbced33f6U, 0x3d60f0523e0d64ecU, 0xbd5c7d5fbc8afd58U,
  0xbe25a8ea3c7251f6U, 0xbd9481483c562d2bU, 0x3d70a6ed3df0491bU, 0x3e19611e3dc845c6U,
  0xbdbbdca2bda7423fU, 0xbd0a5bdc3d1e01e1U, 0x3d91934ebced0221U, 0xbdcfeaaabb739b88U,
  0x3d968678bc0fc615U, 0xbc77bdb53da3889dU, 0xbceaf2313c572d9cU, 0x3af24daf3de05f83U,
  0x3dd82caa3d094acaU, 0xbe0147943bb61b06U, 0xbd8041153d9ddb6fU, 0xbd59bcd73caf6181U,
  0xbcb8f57e3c0aad68U, 0xbe13acce3d44a8eaU, 0x3cb4284b3df1baa4U, 0xbd4b8d94bb80cc45U,
  0x3e6c03a6bc0a7dd1U, 0xbd9b749cbc99c209U, 0xbcdef2d9bd1defd4U, 0xbe132ada3d53817fU,
  0x3e8d84c9bd52155bU, 0xbd81d1ac3d91338cU, 0xbd276dab3cd4bfceU, 0xbdbb2e3cbda33ca7U,
  0x3e02570dbcbb9b24U, 0xbdc32e1e3df05ee6U, 0xbc9212c63cc285edU, 0xbb9c04f2bcabb905U,
  0x3d42ce72bcec8034U, 0xbd933cb3bbd13225U, 0x3d6b6d44bcc227aaU, 0x3d5b08dcbd074597U,
  0x3b2a82b7bda6c3e2U, 0x3d40a513bc57aa2cU, 0x3cbf670c3d2ad3fbU, 0x3d4ec35e3d97a9d7U,
  0x3b1457ebbcee2a2fU, 0xbc80db363bd1ae11U, 0x3d0826eb3d10b537U, 0x3d629bdabd83d017U,
  0x3dc143c23db34167U, 0xbc8f54b3bc8ed893U, 0xbde9f49c3cd914bfU, 0x3d535ef3bca04b02U,
  0x3af9654e3d2d5520U, 0x3c1a1416bccb6eb3U, 0xbdc7720e3de0bb02U, 0xbd24f554bc66ea04U,
  0x3c2935ef3ccfe7b8U, 0x3dbae8b93d23d139U, 0x3d371d7a3d5c4043U, 0xbd47783ebdd35a63U,
  0x3c57bd65bcf69cf3U, 0xbb21e032ba9d39d7U, 0xbd3c0e9d3cec308dU, 0xbd8c232bbd9836e0U,
  0xbd4138573c1bc9edU, 0x3d8361523d797814U, 0xbc1469c03dca9e2aU, 0xbd795786bcc4344dU,
  0x3d10cf163cdba239U, 0x3d53dd413d3b82e6U, 0x3d49616abd810b66U, 0xbecade383fa85cceU,
  0x3fbd1346bfb540d4U, 0x3f6ccc45c00dc936U, 0xbf207335bda04f35U, 0x3d8d986b3c8f6ab6U,
  0xbe3943e0bd0e0cc9U, 0x3e325da0bdfc0ba6U, 0x3cfe41fabe5cafddU, 0xbd6171213dd5fbfbU,
  0xbdcaeab3be3188efU, 0x3e0895a1be5cb23fU, 0x3d2fa8273cb7bc54U, 0xbe14eebd3d74276fU,
  0xbe4c3cabbd25d5baU, 0xbd86ca01bdd1e3bcU, 0xbe38ec273d7436e4U, 0xbe3e40713af7ea52U,
  0xbdf59388be024366U, 0xbc6825773e02c96eU, 0xbe2a1e783de2bea0U, 0x3d18b7c73d932ad5U,
  0xbded6890bdcc6372U, 0xbc9f42c33d82d6e8U, 0xbeab5bf83d15c644U, 0x3df8fac7bdb156e8U,
  0x3d1fd070bcb7b8edU, 0xbe8ac2c6bcf28e9cU, 0xbcf618fcbe4e13ccU, 0xbe03ae3bbd1c3860U,
  0xbcfb48cebc83ab90U, 0x3dcd7ece3dbe1a71U, 0xbe38da993e4dba4eU, 0x3e2ab910bcd98776U,
  0x3b5bd7d2be27cc89U, 0x3e7ae0a5bca5cc25U, 0xbce1c21b3d9a2ee0U, 0xbdac39d7be260adfU,
  0x3df6e57bbd2c64aaU, 0xbbb69000bce2074cU, 0xbc9badca3dea87cfU, 0xbd1f7ad4bd62ac92U,
  0x3de901e5bc771302U, 0xbd95937d3c0e2909U, 0xbd3457323dd19c5eU, 0xbd4fcbbcbd347533U,
  0xbc1b6ab63e0c7979U, 0xbd82d52bbc4e5db0U, 0xbd6c952c3dc37d4aU, 0xbdb8da50be0b3dadU,
  0x3e39f0c43de5c3e0U, 0xbc46957dbc3358acU, 0xbd7241343dd93b2aU, 0xbcaae118bd33ed29U,
  0x3d7a3be23d8a918fU, 0xbcd0ab3f3b45791bU, 0x3ccc4afe3d82e291U, 0xbdb1ca753cbe6d64U,
  0x3dc828873d645729U, 0x3d1efdbcbda975e9U, 0x3de9432ebc0c2d66U, 0xbc7142efbd2a9c19U,
  0x3da80a9c3dccba81U, 0xbcf955d9bc38f436U, 0x3c1d40a5bd6df8bbU, 0xbdde5d7f3d0f0730U,
  0x3de69fd1bc7d304fU, 0xbca401b03d1dec94U, 0x3d8bbaacbce5d831U, 0xbd900d35bd150c02U,
  0x3d093df43c79eed4U, 0xbd6dceb73dadc522U, 0xbd62e85fbdb19b5bU, 0xbd46d378bcf846afU,
  0xbd2d963b3dfb5bddU, 0x3bbda241bd8bfceeU, 0x3ccdb1953d0d9b74U, 0xbe0c0dc53dd6faa1U,
  0x3d252aaabca756b2U, 0x3c5f920d3dda8bdfU, 0x3d3525e2bd091288U, 0xbe102f8cbcbab16eU,
  0x3d04bb143dbf9737U, 0xbd45d895bd52dd18U, 0x3e510efebc50ec96U, 0xbe65c5a5bd2a35abU,
  0x3cebf302bd383dd9U, 0xbc7650debd180b5bU, 0x3d1b6583bdf18826U, 0xbe3ba155be3253a6U,
  0xbc4af191bc939d86U, 0x3e1a19a0bc1e5619U, 0xbe1f4bb9bcd6c0c1U, 0xbe166b90be04eb86U,
  0x3cbecd84bd860ff1U, 0x3e40cec7bdc93d6aU, 0xbd42c2dabbac8a9cU, 0xbd18971bbcff4640U,
  0x3d8d2149bd08e33eU, 0x3e3fe537be16383fU, 0xbe08b3a2bd6b7d88U, 0x3e31a5643cfe26a6U,
  0xbdee4d32bd925c0dU, 0x3dfe2d7abd91e6d3U, 0xbc90492cbd0fd4eeU, 0xbdbd5e3b3c18a190U,
  0xbb6377cfbda85724U, 0x3da3dd2cbdb40a84U, 0x3d491d793dd62dc7U, 0x3d1beff23d822f0bU,
  0xbe0126cbbe9ba6c2U, 0x3d98683dbd651b7aU, 0xbd986efabd67567dU, 0xbd9d76fb3e31b14cU,
  0x3c91d7c43e5b2db0U, 0xbe0af44abe06c1c3U, 0xbe3861e8be5b2cf2U, 0xbe6a31bdbb7ceed8U,
  0x3e47ab503d4bb3a7U, 0x3e56bd0d3d9333b9U, 0xbe270069be41c41aU, 0xbd0353313d1d0799U,
  0xbe992e043e2ade13U, 0x3cfb1727bdae4e59U, 0x3c0e33b5be2151aeU, 0x3e1c4a44bda0edd5U,
  0xbd92a44bbd141d69U, 0x3d9bc585b93eab52U, 0xbcc28063bdcdbb47U, 0x3e029f73bd39c1cbU,
  0xbe11f93cbd95081eU, 0x3e6d6ba8bdfebd65U, 0xbe05b240bdccd9d8U, 0x3e0a1391ba900eeeU,
  0xbbc5f46a3d44aa2dU, 0x3e4f6e0b3dc7e6abU, 0xbe9402033e310899U, 0x3cfce0063dc2b596U,
  0xbce249e0be8bb89fU, 0xbe970cefbd8916aaU, 0x3e8813c03e811ca8U, 0xbd3b447e3e50ab13U,
  0xbdef09913cef0cd8U, 0xbe8e8466be4515ddU, 0x3ec5d8563eef462aU, 0x3ddeed7bbca7a8c7U,
  0x3d525292bda4a675U, 0x3c55aba53dfa22c5U, 0x3e72259f3e2fdcc1U, 0x3da47305bd74c180U,
  0x3e2778c33d87eeb0U, 0x3d3a89843d2a407fU, 0x3e7f7c6ebda3a9deU, 0x3c7826b7be2e4675U,
  0x3e1ff0df3e7ccdabU, 0x3e5523d73d76d135U, 0xbb636993bd4bf170U, 0x3e2e8a6b3da26242U,
  0x3e5ce0ad3e421f75U, 0x3e16261e3e4c0b8eU, 0x3b60a1c5bdf9a797U, 0x3c8ab98abdd635c3U,
  0x3d753ed7be4af705U, 0x3e0507e6be32cafeU, 0xbe062d093d2b84b5U, 0xbc892029bdb8c364U,
  0x3c5970aebcbff882U, 0xbc364d4bbde40f3eU, 0xbd3876d33ca25294U, 0xbe4d73cfbe85aef0U,
  0x3d2c0744bcfb77d6U, 0x3dac6cdcbdf9a3c8U, 0xbdf748b73d6024c5U, 0xbe439fcdbc0afe32U,
  0xbdfc4708be73e607U, 0xbdb2244ebdc83384U, 0xbda7824a3d8b2dacU, 0xbb1b82763b8c8714U,
  0x3e062c3cbd93d9feU, 0xbc7355d5be28bf1cU, 0xbdfe019dbd6be013U, 0x3c8690d3bdb4f221U,
  0xbd31f33bbd7cd69cU, 0x3d1c2475bde3b2c5U, 0xbdcd942abdc4cc71U, 0x3d1e2841bd758d4aU,
  0x3cb2f9083dc81501U, 0x3d40cd2b3d951f69U, 0xbcb304293d1b3785U, 0x3cd71d8cbd325e1bU,
  0x3c9b1a2c3d677311U, 0xbce516ce3d058147U, 0x3b016fea3d1163b3U, 0x3d2acc51bdb4a2adU,
  0x3da2ccbd3d987893U, 0x3dbb78d23e01e8e5U, 0x3d4be5a33d8d0bc2U, 0xbc1c16283ca8b037U,
  0x3da95fa53ddb54e0U, 0x3cde898dbc841ff8U, 0x3ce109823ad40ca6U, 0xbd01cab13d591e42U,
  0x3d47f19fbd9816d0U, 0x3aa369b43c8c5180U, 0xbb467033bbb4e454U, 0x3d3ef1ba3deb0cc5U,
  0xbd48764f3e0a3067U, 0xbceeed3fbc16b51fU, 0x3d1f6fd53d3ce050U, 0x3da098573cea4908U,
  0x3da82cb93c9e890dU, 0x3c7c283bbd45691fU, 0xbd33679d3ca42d0dU, 0x3c971310bc5107efU,
  0x3d54e7e83da10a0cU, 0x3d5072e3bcfc5b7fU, 0x3d1aec8b3e05e63cU, 0x3cb9e9303c9cb961U,
  0xbe3054713db88c02U, 0xbd5744553dbec372U, 0xbc21762a3d1ad446U, 0x3d46b3b8bb4bb3d9U,
  0x3e07c4373d86f33bU, 0xbd886e3fbd03e906U, 0x3d4888d13d94ce81U, 0xbda8553cbd013be0U,
  0x3d69f9253c5ea034U, 0x3cf88b563e00ff9eU, 0x3d0f3a303c449086U, 0xbdb235143cba5d76U,
  0x3d421c4b3c153b1cU, 0xbce0cd113c411718U, 0xbd02b4d3bc2a05b5U, 0x3cf2a0efbcedb64eU,
  0xbb424bc53dc8c4f2U, 0xbcdf26133c67876aU, 0xbd57b4203b8aaf57U, 0xbd4c127abd2b723cU,
  0xbc60838c3e4b2ef5U, 0xbcfa2f693da40a44U, 0x3c2a21d4bcd57737U, 0x3e2a8a733de05438U,
  0xbd2330ff3d8020b6U, 0x3c63ef413d4f0ee6U, 0x3e05ea9e3c1a39bbU, 0x3d8f0af73d360135U,
  0xbcd612b23e248796U, 0x3d898f433c0bfe10U, 0xbd9093cdbe17eb34U, 0xbc7c3165bd8da248U,
  0x3dfdc08d3de8da5eU, 0xbe01cd0b3cc139dfU, 0xba6ddbcd3b91e336U, 0x3d4d1a64bc817c4dU,
  0x3d6fdc813c2f9d2dU, 0x3d0133103d47e280U, 0x3ce69d39bd95d67aU, 0x3dabe2743e268059U,
  0xbe8ae55dbb836d96U, 0x3e74fe6c3e2478a8U, 0x3defb7023e637f53U, 0x3e8db1663da3aae3U,
  0xbd77633cbdf06df7U, 0x3dd35e2bbd4e5397U, 0xbdd4b485bcea04e8U, 0x3d441015be0dda91U,
  0x3db844313d3164e5U, 0xbddc2fb9be4b2ca7U, 0xbe2a86b6bd94b472U, 0xbdb17adf3da80ffdU,
  0xbe76625bbd0db442U, 0x3d9bf373bd466dadU, 0xbdbfaadd3ca559d7U, 0xbd5b2147bd722942U,
  0xbc1e4e95bd154ceaU, 0xbd4f8b4cbc80c4b5U, 0xbe060f563daac339U, 0xbd3ad6723c716537U,
  0x3e451fad3d268dbcU, 0x3ab7df6ebd6558a6U, 0xbdeb7af3be025fdbU, 0x3d33ee50bafd115eU,
  0xbdf7d810be911b11U, 0x3c949c223bfd2812U, 0x3d82cf3f3dfdad37U, 0xbd904e8cbe34f372U,
  0x3eb07d25be0d87bdU, 0xbce36cb73cd1c368U, 0xbe7ca397be20532eU, 0xbe46baeebd68450fU,
  0x3ecdf1683e5c0828U, 0x3d8c5cdbbd199450U, 0xbd7ae51fbe047fe6U, 0xbe3d15bf3fc124dbU,
  0x3ebeb1073f87a74eU, 0xbf742a4d3e383369U, 0x3ea4b5b0bf76691bU, 0xbd61dcb1bd3637b9U,
  0x3d3878e63d9d8855U, 0x3cbe5ca1bdd0dbaeU, 0x3bfeb8403de10f3fU, 0xbdc023423d007bcaU,
  0xbe84750d3e66c60cU, 0x3d1c2c61bdd1dc9eU, 0xbe2626223e417ff3U, 0x3d7021d83cd1ebb3U,
  0xbd84bd033cd38292U, 0x3d98efab3e0091acU, 0x3d83b7e6bc68bcdcU, 0x3da57010bd5974d0U,
  0x3dd100eb3ce1c8bcU, 0x3c89916b3e392553U, 0x3e105710bd2bec53U, 0xbcad4273bdd2b51cU,
  0xbe80832ebd9c08f7U, 0x3e48a686bd573423U, 0x3de089f2bdc848a9U, 0xbdde92653d506cc3U,
  0xbd31bd68bd4049faU, 0x3d729cdbbe4b8957U, 0xbdf28a6e3da8f91fU, 0x3d09d2823a32068fU,
  0xbe04322ebd8175adU, 0xbe01127bbd149493U, 0xbd6d92363cd95789U, 0x3daddc03bbf9f5bdU,
  0xbe45e5b8bc586ec3U, 0x3e58a62dbd211b8cU, 0xbe37b29cbcfd895aU, 0xbdf8168f3ce748ecU,
  0xbdc77efabcc0c274U, 0xbd807b8dbe415246U, 0xbd5ef3623d88d110U, 0x3ddc3676bd5d3083U,
  0x3d489a2dbd5539e6U, 0x3d9490333ced9a24U, 0xbd85bdb63d2cf993U, 0x3d9a6f68be118241U,
  0xbc9da520bd2b707bU, 0x3cc447b03d30defaU, 0xbda5118d3db56c2bU, 0x3d845644bdac0983U,
  0xbd26508abd6c0565U, 0x3ddda71a3d514770U, 0x3d2c9ac93d40845fU, 0x3cdc203abdb4d90bU,
  0xbb3109e8bd6c694aU, 0x3ca84276bd17f705U, 0xbda70babbba16de3U, 0x3d1d2258bc5cf138U,
  0xbb3465663cb7d623U, 0x3d30dd16bc4b56b9U, 0xbca599dbbd22ff20U, 0x3da54c4cbd025ec3U,
  0x3bbeb54c3cb161d5U, 0x3cbbdd07bd84f5cdU, 0xbd0c9b503cb28f39U, 0xb93e23b23c9da8abU,
  0xbcd507d13c4fa959U, 0xbbfc4c6dbc66bd98U, 0xbd28c2423d463668U, 0x3a9ca7ef3bbf987bU,
  0x3bb0f2563c0d5fbcU, 0xbcd7958b3c416eb2U, 0x3c201ab5bd4703f8U, 0x3cd5f5043dbe5dfdU,
  0x3c635db63d9dd6c1U, 0xbdb02d823d22abecU, 0x3c5503c83d6d3f5bU, 0xbdc4694c3bc4f025U,
  0xbe06d7763cedc638U, 0xbcbbd8233d9471d5U, 0xbdaa931a3c8d846cU, 0xbdafdf793d965f6fU,
  0xbd7304543d58ac39U, 0xbb6f1d583d876a95U, 0xbcdbfbf93d071cb4U, 0xbcff8a9f3b4cec56U,
  0xbe07819c3dbb59bfU, 0x3d3520043d91c3aeU, 0xbce51d2d3d023659U, 0x3c70f91bbd0c677cU,
  0xbc829626bc5ac11bU, 0xbd19fa05bcda4696U, 0xbd8f7630bdbaf13eU, 0x3d23b752bd6ec839U,
  0xbd4db5b73a99a2dfU, 0xbc70e49ebd457102U, 0xbd4522aabd03348fU, 0xbda645d23baa3ee9U,
  0xbd5f02a23d020176U, 0xbd90fd9bbcd57aaeU, 0xbd33dc64bd34a8a8U, 0xbe0a8cca3db1d854U,
  0x3ce5bb6e3d8b8230U, 0xbdc50ae3be15757eU, 0xbd92d82abc5a287dU, 0xbdcffcf53c77e116U,
  0x3de80e9c3cb32e5bU, 0xbe05390abdb0728fU, 0xbdad3e543bf17f95U, 0xbbc4632bbd000c7eU,
  0x3cefe3053cac8a0cU, 0xbdd36969bd01f5b3U, 0xbdfc730ebdcf54f9U, 0xbdb183fbbb91bf51U,
  0x3cf4d570bd6fe5dbU, 0xbde22acb3d656c4eU, 0xbcaca65cbc34f20cU, 0xbdcde393bdb87ba8U,
  0xbd7ac68dbdbf248dU, 0x3c80a4d1bdb507ffU, 0x3c9c1ca1be07978dU, 0xbe04d7673ce2aa05U,
  0xbce07570bde0459cU, 0xbe1c9c88bdc9514dU, 0xbc8908a5be2e9466U, 0xbdd46f40bcfd44c1U,
  0x3acebc1abe8dce16U, 0x3d1f6920be0cf31fU, 0xbe6b690dbe4266c2U, 0x3d3747a43e29598dU,
  0x3d77827abd553988U, 0x3db35c26be11e436U, 0xbd59765a3ccf488aU, 0xbba8abd73e0de763U,
  0x3e0463abbd6f1706U, 0xbe2cc9ed3d212854U, 0x3c85bcfc3c0f45b9U, 0xbd82d62b3cd08287U,
  0x3d4f0079bbaf895fU, 0x3d6d48b93d34b200U, 0x3d01bc41be493633U, 0x3b9f8d913c77008cU,
  0x3e223fbbbcb15fbfU, 0x3d5986d8bdb86d66U, 0x3e7cc906be32956cU, 0x3c9dcf3d3bd7928aU,
  0x3d4c20cd3e544f89U, 0x3ce877eb3c73ff86U, 0xbd6621623d5f9cc8U, 0xbd76adab3db29124U,
  0xbdb53ba93c5c915eU, 0x3e22db02bba3f381U, 0x3e00bc38bb8d1cd3U, 0x3d40f98c3daba6caU,
  0xbe0bcff23e00a826U, 0xbd5b9ec1bdfa67dbU, 0x3e1714623d87bf07U, 0x3d8a18f53dca73a2U,
  0xbe89db28bdd0140dU, 0xbbb98ecebddb811bU, 0x3d6b2307bdfbf6ddU, 0x3dc8378a3d4f79f4U,
  0xbd233642bb8a148fU, 0x3daf3e77bd6ff50dU, 0x3e7bee8dbccc3d5bU, 0x3d84fb0f3c3d0f05U,
  0xbe0122943c915e04U, 0x3a4a2f60bdfc832cU, 0x3dbb17bbbd446b21U, 0x3e0a29623e131baeU,
  0xbe14ad9bbb869321U, 0x3e698259bda3fb65U, 0xbd445fc63de3b722U, 0xbdd317353d4ede49U,
  0x3c6088973d08d472U, 0xbd6ef2febd5e496eU, 0xbd81d3d33e477cbeU, 0x3d6537843d909addU,
  0x3bf2caa3bd95f50fU, 0x3dff61913d598921U, 0x3e38c56d3d0e4f4cU, 0x3ded2d163dce207bU,
  0xbddd57d4bd028e75U, 0x3df437d7be01b790U, 0xbd5a51f93d0589feU, 0xbba41c35bda93841U,
  0x3d7f32193d04ac84U, 0x3d9a41a33de2a283U, 0xbcd6b0e7bd2a211cU, 0x3da960cebd8fa16eU,
  0x3e15148bbb893bb1U, 0xbd97fafa3df5b6feU, 0xbd3fbb2cbd7e042fU, 0x3d442373be382014U,
  0x3dba663f3dda3c66U, 0x3db6ebe1bcbcaa1cU, 0x3c400f653dd6f328U, 0xbced544e3d48116bU,
  0xbe3852753c1084dbU, 0x3da9625e3e67ed2fU, 0xbdac83443b7f1f0eU, 0xbd9e49c7bd605d18U,
  0xbe2f714f3d82158eU, 0xbe10d7a03d9df7beU, 0x3da5a027bd875cddU, 0xbdeff5c3bd1c0932U,
  0xbdfc50d03e3e57f3U, 0xbe216b1abbd39600U, 0x3dd17dd6bd4188a0U, 0xbd4b92e13d00a692U,
  0xbd2f0c5d3d35a402U, 0xbde8756dbd1b789bU, 0x3c1b7291bd89280fU, 0xbd259ff83be9d155U,
  0xbd017a913d1767a1U, 0xbd0af20fbcd2d0a3U, 0xbddaef78bdf8eaf5U, 0xbdc5e83b3c6e745aU,
  0xbd92369d3c031719U, 0xbd8f0d3ebd82004bU, 0xbd83cd15bda42ba3U, 0xbd668cd53d4defe6U,
  0x3dbdbcd23e291ebdU, 0x3e252851bdaf3472U, 0x3d01c7573dba398aU, 0x3d4aff223d85f7afU,
  0xbd7d0737bdbf08dbU, 0xbe0ede9ebcf6ae79U, 0xbdadd55e3c7f89d4U, 0xbd2f82b4be1056f8U,
  0xbd50621fbdc6c905U, 0x3c3a3064bd92f87bU, 0xbd9cc36dbe174e77U, 0xbabc8a343d6caff6U,
  0x3d870a74bdb05f43U, 0x3cb229b9be2d91c0U, 0xbdbbe370bd91ab1dU, 0xbda75f3abdf3f7a5U,
  0xbc64ee4f3ba6ebaaU, 0x3dc8dbed3e164489U, 0xbb97f0eebdebbcd8U, 0xbd40ccaf3e06e053U,
  0xba34ae78be1c6f3aU, 0x3d4d8ae63d98111fU, 0xbd4e6b2c3c0bebf1U, 0xbdeec0383d34956bU,
  0xbe8a7d933dd1ef79U, 0xbe4b7b6bbe40ce56U, 0x3cb17ef53cdc955dU, 0xbb1f1de03dd3e07aU,
  0xbdd6753c3e1a3085U, 0xbe4991f4bd081490U, 0xbe5482843d46d5e9U, 0xbda80254bd551177U,
  0xbdae23033d20a294U, 0xbd8c9c973e0f7f57U, 0xbdba2e6e3cc2a692U, 0x3cf906ac3e492a49U,
  0xbddb91fcbe5beceaU, 0x3e1b71953d77d779U, 0x3e8265f93dfc3ebcU, 0x3d720b1fbe087753U,
  0xbdf22f17bdfc93bdU, 0xbde7a5d1bbd5e147U, 0x3d88273abe6f4c86U, 0xbe0e0b893cd4d5ebU,
  0x3dcb6fc7be214794U, 0x3d225a88bdc6c183U, 0x3d6b88ce3b16027aU, 0xbca08edf3cfb70a1U,
  0xbe3c76babe1efbf3U, 0x3d9726eebd69c59fU, 0xbaa1e2953d5a98d2U, 0x3e1d31553d4d756bU,
  0x3e36ba49bd5008e3U, 0xbe2b2112bd8d1bc6U, 0xbd17d6353d710ab4U, 0x3d83e5a93df23388U,
  0xbe0d238cbe7e3fddU, 0x3e0b380ebd18a074U, 0x3de70ed93da76c3bU, 0xbe3e0842bdb2b5a6U,
  0xbe3f53c9bb728714U, 0x3dacdf46bd515643U, 0xbdef3b363e1253b0U, 0xbe0b290ebd7f0a08U,
  0xbe633d0bbd652afeU, 0xbdd5d789be764cd7U, 0xbd147a51bd78f1a2U, 0xbcbc933fbd40fc37U,
  0xbd5de0e5bdf11805U, 0xbe2ff95ebca05eadU, 0x3e5a4a26bcc94176U, 0xbe11efef3f90e7ecU,
  0x3f68001e3f9de931U, 0x3f8fae673b8cba0fU, 0x3febd31e3fd1cf34U, 0x3e02f970bc39961aU,
  0xbc855edf3e27dc47U, 0x3d970270bdf1b998U, 0xbbec4ef9bd3ba807U, 0x3e0aced0bd520894U,
  0xbcc3d58f3dc9a625U, 0x3ccc1f52bdd4aab5U, 0xbe0e015a3da4a5e7U, 0x3e10eb5bbc69434fU,
  0x3b56699f3e41870aU, 0x3d6a3dbfbc14f9e2U, 0xbe82a7053de2a434U, 0xbb3fb247bd1b34feU,
  0xbd4645f73d82599aU, 0x3e02c6e6bd4a3f4bU, 0xbe38f5e0bd8e6b0eU, 0xbd6936b7bda8b8dcU,
  0xbce7939c3d85c512U, 0x3d856436be0a64bdU, 0xbdcfb619bcba5ba8U, 0x3d84f526bb9c7072U,
  0x3c8811c63dfdb192U, 0x3d3cc77fbdf464c5U, 0xbdbc64b23d37f3a1U, 0x3e43939cbda5fd7eU,
  0x3dc021153d5c7fbeU, 0x3820cbd4bda81462U, 0x3c8f9403bc784713U, 0x3980f4a43dcdafc6U,
  0x3d9b21223dff1714U, 0xbcf11b323b595b0fU, 0x3d1eafa23dd834bfU, 0x3dd489b83cf815c2U,
  0x3d3457b83e018c31U, 0x3c6f5892bd9a13beU, 0xbe1552c83d90838dU, 0x3deae7943e3015eeU,
  0xbe1565a63e24212bU, 0x3c97b86e3e6d3ef5U, 0x3dd55d44bd03cbfdU, 0xbe31565f3d4f7e7aU,
  0xbc84680fbe4c8116U, 0xbe4d00413e95f126U, 0x3e8d44bc3df0de46U, 0x3e2056a63dc25628U,
  0xbdbacfe3be856eb4U, 0xbdf7c0953e2a6b4eU, 0x3e21f7babdc41c29U, 0x3e1eb7b53e7b3868U,
  0xbd990fcc3e2134d4U, 0x3d9221c4ba836b12U, 0xbd2a8dd53e758ac7U, 0xbde247f23d6e9269U,
  0xbd15f185be18e879U, 0x3d580909be23028cU, 0xbe5e90a6be38b388U, 0x3ddaf51e3dc8dec8U,
  0xbdf492993e837bc2U, 0x3e0a11e1bd7778b5U, 0xbe8a8dc43dcfad4bU, 0xbe264cc4bead8342U,
  0xbe0c6cc93e343621U, 0xbcbfbec2bb1352dbU, 0xbdb4b8e43e5f0e84U, 0xbd3dd3aebe29f8d5U,
  0xbe25471d3d8ac6fbU, 0x3c672b8bbed120a3U, 0x3ea8c4413d8ee372U, 0xbcf50237bd8163c9U,
  0xbe6855833eaf5a2aU, 0xbd3fd48cbe03ebf6U, 0xbcc880253a97a65eU, 0xbe1746d53dd19944U,
  0xbd866844bd42a193U, 0xbe03b1db3d960971U, 0x3e201af3bd85dcd3U, 0x3e3f10b93d082b38U,
  0x3dbb41d7bdcf8dcfU, 0xbd21fec03d536b81U, 0x3ea1140e3dafc42dU, 0x3e72b0623dd20059U,
  0x3ddecc08bd64fbaeU, 0xbc955aa83de71795U, 0xbe146168bc4568c1U, 0xbe03e578bddda5e5U,
  0xbe359d4b3dcbb6c1U, 0xbdf365153bd8e55aU, 0xbdcd08053c8dadc7U, 0x3e38092f3e673100U,
  0xba6467773db84888U, 0x3e2b61853d5037f5U, 0x3d619b1dbe143f6bU, 0x3d567ef83d521442U,
  0xbbcccbe13cc6438fU, 0x3bba2a94bdaedf51U, 0x3e09507bbdae5b0fU, 0x3d8c54b43e9bd0c6U,
  0xbe0a70303df2d7ddU, 0x3d79b605bd810f53U, 0x3dec14733e303a9bU, 0x3db28935bc7932a9U,
  0xbca5421f3d8bc2fdU, 0x3e2fdebabd808fcdU, 0xbe1ac823bd0a0996U, 0x3d17b9cebbd9fcf6U,
  0x3dc828c3bd0f93a4U, 0xbe24a69e3e525e65U, 0x3c34a3253e9fd3edU, 0x3e1df3d43cad6959U,
  0xbe509f6b3b6b5102U, 0x3e912056bd4b3d57U, 0xbd0b5a223bf814e8U, 0x3d42d25e3dbbd060U,
  0xbd900addbc9dc8e9U, 0x3e60dd733d51f2beU, 0xbe1758aa3e1bdd0bU, 0xbced9b953e3940a1U,
  0x3d6bf6043b0e49b6U, 0x3e0eedfd3c092e88U, 0xbd86aa293dcf7c19U, 0x3e1b557b3e237415U,
  0xbc94899b3cfc92f2U, 0x3d9e69c5be82779fU, 0xbdd203e33cb750b6U, 0x3e72ec8a3d1fbed0U,
  0x3c33201f3d1c440aU, 0x3ebbb093bd8ebca6U, 0xbd5ead5dbea9160eU, 0xbdb672b7bd08ff2dU,
  0xbde5e9173e15339cU, 0xba4a5069bdf7810fU, 0xbcf6690bbd689f2cU, 0xbe185b55bd200bafU,
  0x3c975362bd16103bU, 0xbe9e0a6e3dcd8beaU, 0xbc62b2adbe054ecfU, 0xbcd7eeb2bda6b8b9U,
  0x3d46c0333db69866U, 0xbe309bb43e808391U, 0x3dcc25933d1eabf6U, 0xbede7938bd130b3cU,
  0x3e1e616dbb9b5b25U, 0xbe77b771be1df416U, 0x3dea41cdbd85d36aU, 0x3e82915abcf57030U,
  0x3df549ed3aeeab88U, 0xbdf0d1713e44ec6aU, 0x39ee13f0be8bea38U, 0x3e0b37fe3dd98a1cU,
  0x3e27adad3c06e45bU, 0xbdcced26bc46d83fU, 0x3da789c63cc8177bU, 0x3e74da64be1b40beU,
  0x3da5b46d3defd78eU, 0xbdce2962bb37c35bU, 0x3eb528f73e7e710fU, 0x3d176614bd64f0a0U,
  0xbdcd3520bdd3a59dU, 0xbdda2ea2bd9cb5f9U, 0xbe580dd53d857538U, 0xbdd73c64bd859bfbU,
  0xbe4a65b7bdb220a7U, 0x3d1145513d68c465U, 0xbe41b47bbe535ec6U, 0xbd90519c3e42601fU,
  0xbe06e7a7be3aa803U, 0x3de190a0be6b48dfU, 0xbdffa6df3bdd7ddbU, 0xbe13e762be2a41acU,
  0x3d92fcd63e12bf26U, 0x3e6d7d02bde5f535U, 0xbc98ffadbd983f14U, 0xbdebbbd6bdcc99acU,
  0xbe2133b23cbf5992U, 0x3ead3bd6be8d6821U, 0xbda2cdd53e0de3c6U, 0xbdec61f13cea5ed4U,
  0xbcd82b84bda5c46dU, 0x3d9e2aabbe84aa2fU, 0x3d26e7eb3e83280eU, 0x3d1f737d3d336f39U,
  0x3cedaf7f3d6e69edU, 0xbceef871bb579578U, 0x3dd8ff6abd304a1aU, 0xb95c6276bc458c1aU,
  0x3ca4517bbdc45327U, 0xbe7f7ccb3dfb9bbbU, 0x3c666c1bbd90541aU, 0x3b84053dbdad684eU,
  0x3e0c1cc8be2dffa0U, 0xbd634c973d623f98U, 0xbdc26b57bd64900eU, 0x3e0e435d3c8570b5U,
  0x3dc49afb3d58e821U, 0x3c3dc95d3e23c964U, 0x3d413577be114d4aU, 0x3cee25e4bdd01c30U,
  0x3dd739333bdd1708U, 0xbe227b23be480ae2U, 0xbd33ed573d21e610U, 0x3e7651b73e0fd66cU,
  0x3ca17bcabda661c4U, 0xbdef3284bc96b791U, 0x3dc372aebd98fee5U, 0xbd251c49bd6d9435U,
  0x3e33e530bddee19bU, 0x3dbb94453ccda592U, 0xbdabfba2bb8a2d64U, 0x3d13318c3dcffa18U,
  0xbdb31b81bdceeb48U, 0x3d7fe1303d967554U, 0x3d984a52be0a9087U, 0x3db43e323dbb700bU,
  0xbdccaa273d4d4b72U, 0x3e35ce073b975a24U, 0x3cb240523da4017aU, 0x3da068ebbc5a58b6U,
  0x3e608220bc2d31b9U, 0xbe3343803c4d5d7bU, 0xbd0976833dce280fU, 0xbd52787d3e1f7167U,
  0x3db05e07bcba015cU, 0xbda361fc3cdeb411U, 0xbd175a853d81fe12U, 0x3df1f2853c8f15a0U,
  0x3e04b6173ca62f79U, 0xbdc2e2eabd63cf67U, 0xbd4c40ac3c1528abU, 0x3daa272f3e9ac01dU,
  0xbc09cac5be5d2216U, 0x3e21f5bc3e3c4b09U, 0x3e37658ebd35803eU, 0x3e0eb8233de99e47U,
  0xbd9466dabc4c485bU, 0x3d2d3b323dd4a241U, 0x3cc7077abdf19cb7U, 0x3e1fb053bcac6b0cU,
  0xbe119c7dbdb8c257U, 0x3ccef926be5df62bU, 0x3dcff9563d7fbe93U, 0x3d8345c3be685fd1U,
  0xbd438680bb937f9bU, 0xbcf19ec03e000598U, 0xbe0ea0893d0a69a6U, 0x3d73845abcff8193U,
  0x3d5ced023de9d859U, 0x3e2fc9d5bd9b1c92U, 0xbdad0258bd79f691U, 0x3c9c5d07bcf92c3eU,
  0xbc8e70d83e370cbdU, 0xbe3f82563dbbe407U, 0xbd0f64ddbdb3b42bU, 0x3dbfe6d2bd851991U,
  0x3e46df22be4e4308U, 0xbe0aecd03e3c9fd2U, 0x3c3065bb3cccb099U, 0x3e0534423d948b66U,
  0x3d912cf5be4a8b8cU, 0x3dac7c2c3e7d37ebU, 0xbd92d09c3d8be95aU, 0xbd8907463db4f1a4U,
  0xbe5b7cfbbe4f3baaU, 0x3df028663e5d2cacU, 0x3e12f849be1da2c9U, 0xbdf1dc9dbd9dc4f2U,
  0xbd487da6be145c36U, 0x3c6a07c8bc1a037cU, 0xbe664bc7be1e249eU, 0x3d59f2bc3da0a5caU,
  0x3d3cbc7cbd8474fcU, 0xbc8554dc3d7a28d7U, 0x3d1df712bdcfdd98U, 0x3cdd5696be02ae65U,
  0xbce2474ebe2068b2U, 0xbe260f843db8d9beU, 0x3e452cb0be084deaU, 0x3c271640be56e591U,
  0x3d14005cbd9f9072U, 0x3e6910f1bdabf83dU, 0x39d836bebc9de724U, 0xbdfb0a9fbd3128ecU,
  0xbdf0e194bdbcd0ffU, 0xbe2af658be4c3df0U, 0x3d20aecfbe820338U, 0x3d118fa2be0bb261U,
  0xbdd447823d2b1911U, 0x3e597e46bd75a24dU, 0x3d8312903d41e648U, 0x3e974c793e0f7f59U,
  0x3e89d2a8bf83377dU, 0x3cb6a7023f35ba5dU, 0x3f3ef862be666dbeU, 0xbd816317bd7bed55U,
  0x3e1e84243dd08a6bU, 0x3d8cf1c5bde09dbaU, 0xbd829f723da76300U, 0xbdb7f371bce87ae1U,
  0x3e2524ecbe115ba0U, 0x3dc9d1f23c9ae237U, 0xbdc20cc63e0ec5c2U, 0xbd740987bc29a099U,
  0x3d4c4c603d88d0e0U, 0x3afe86653e301338U, 0xbcf89506bd846b0bU, 0xbcb71defbda7485fU,
  0x3daf23cd3d6b36faU, 0xbd794d8bbce46b64U, 0xbc8785f33b0e89dfU, 0xbe3f30043d19180fU,
  0xbda575813c1f5085U, 0x3dc1b398be420bdeU, 0x3d821995bda25bf7U, 0x3d1b31d9bd9af85eU,
  0xbd8bd27b3e151c34U, 0xbdb7e9f43d31dec7U, 0xbdaaae6d3d07c390U, 0x3cbca37c3e729960U,
  0xbd4d3707bce14fd4U, 0x3e64e8213d4cb2bdU, 0x3cff6caa3dc428faU, 0x3cfb11733d20ba66U,
  0x3d985fc2bcf23336U, 0x3e49e1d03dfd7f89U, 0x3dadd80a3a32b870U, 0x3e1a8afbbbaffaf1U,
  0x3d4df2203da51548U, 0xbcf3227e3dd81b90U, 0x3c33c4a73cc404a0U, 0xbd869aa03d5a3797U,
  0x3d97d9223d482024U, 0xbd00b820bdf682cfU, 0x3df555a23c87ad86U, 0x3d3a5db9be4cd380U,
  0xbc95dd3b3e00e493U, 0x3d57abd53e24dc83U, 0x3d0dfb683e4e50c5U, 0x3e05852abdd9c4a2U,
  0xbda8ae513df5734bU, 0x3e12c0a2be0fef64U, 0x3e3024943d912603U, 0xbc30b7883e0bdb0fU,
  0xbde9b7ba3e5b7f49U, 0xbc51bc433e32df86U, 0x3d7c6bf13da22af9U, 0xbd61f30abc4c890cU,
  0x3d6d1f62bbac17a8U, 0xbda9eb753d1b52cbU, 0xbd9575823d685c09U, 0xbd4b09e2bdd3a3f7U,
  0x3bc05193be189642U, 0xbd90a7d5bcbfb2dcU, 0x3e2dfccc3ddee870U, 0xbd94f9f2be35bb11U,
  0xba5a6fed3d9dd783U, 0xbe182bf23db76c31U, 0x3d82b077bd604c93U, 0xbd62a4ff3b6703daU,
  0xbe8a58f5bcae3cffU, 0xbe49c33bbd8e53deU, 0xbca15be6be4c7a95U, 0xbe1c57eabcbdd65aU,
  0xbe0932cbbd10bdefU, 0xbdd6b052bd7d258eU, 0x3d06b20cbc14fe33U, 0xbd8aaedb3d114162U,
  0xbe3417e0bdc85923U, 0x39f6eb5f3d0dcf14U, 0x3cbd8044bdc34becU, 0xbb803d0cbdbb5ce3U,
  0x3d26bc993c945ed2U, 0xbe1444953d7c0f2dU, 0x3c6c6586bc01c786U, 0xbe0178ccbc1b1eadU,
  0x3d9ccd9cbc308a85U, 0xbd28cd173e03aab7U, 0x3dd8cdc4bdc28c6cU, 0x3b3ed5aabc844bc9U,
  0xbde513bebdf73f9eU, 0xbd8124423e210036U, 0x3d11d4c7bd4db8c9U, 0xbda0b6ebbddeb197U,
  0xbc8b9c46bdc656caU, 0x3cfa77d33c9b2776U, 0xbdfee8ecbe06f9eaU, 0x3cf5e44bbd96a360U,
  0xbda109183d24ac09U, 0x3cc02908be1c6bcbU, 0xbd85f825bdb01587U, 0xbd5fafce3c5cfac9U,
  0xbd25f498bd115436U, 0xbd95fdddbd223734U, 0xbcc72e81bc930086U, 0xbe17e6c9bdc1d169U,
  0xbdbccf4dbbd18ae2U, 0x3d1df304bc7db69fU, 0xbc88588cbd6d3e1dU, 0xbdffbe903c001d52U,
  0x3cbf66a53c28baceU, 0x3d4173afbbd41a31U, 0xbdde2f0fbca6f8a6U, 0xbd34e3483e6f39beU,
  0xbe5590123da021f0U, 0x3cbcdf7dbd1a3257U, 0xbe0669e1be0d5749U, 0x3e20c1693d29ff79U,
  0x3d3d6abebdee91e8U, 0xbcfad41d3bbd0255U, 0x3e0a86c43ab143fdU, 0x3d158f4e3de221f6U,
  0x3db426e63d0f3e37U, 0x3cf8a2f23dcae663U, 0x3dc69449bdb18430U, 0xbd81403d3e386761U,
  0x3e2ec688bdbcef64U, 0xbe8626f4bd5acf8dU, 0x3906fb5c3e0e6007U, 0x3dc819983e37f5fcU,
  0x3e0ededcbb868336U, 0xbdd52501be0558b9U, 0xbe2427a33e3fcd69U, 0x3d9a99743e7ab16fU,
  0x3e1a9aa0be2aff53U, 0xbbc16be83dfbf90cU, 0xbe77434bbc929b05U, 0xbe1db6443d63664eU,
  0x3dcb1c463d93a637U, 0x3d11c1abbe999528U, 0x3e29730ebdb3ec6fU, 0xbdb2e0ca3bdcc4f6U,
  0xbd835c8d3d310683U, 0x3ea4c9a8bd991e7cU, 0x3e02866bbd684421U, 0x3dcb58acbe08e230U,
  0x3ddb1c50bcfa5e24U, 0x3d33cf02be1f7ff6U, 0xbd50f143bdf7ce32U, 0xbd9b1ba5bdb2f69fU,
  0xbc9960c0bd9a8a3eU, 0x3c787aef3c6d2ee4U, 0x3d83bbac3dd6ea7cU, 0x3d96843cbdf85808U,
  0xbe12358c3d93842aU, 0x3d9cc0fd3d2b6e23U, 0x3c4e1bbd3dacbef8U, 0xbd6204bfbe6b82b4U,
  0x3d17cea83d88e4dfU, 0x3cfd33593c8b9594U, 0x3d7f772d3d817b90U, 0x3d6ccf043d0f40aeU,
  0x3d0449003d346b73U, 0x3d1edc673df18937U, 0xbc669eea3dc8299fU, 0x3e08c0fa3d13cae1U,
  0x3d3f2f91baba81beU, 0x3dd5198f3e2c1e74U, 0x3e02bdbfbd1796b4U, 0x3d9f69513d274deaU,
  0x3dfde29f3dce7a77U, 0xbc8516c43dbda0c2U, 0x3c12e1cbbd279b2eU, 0xbdbdcd5f3daf0370U,
  0xbc9cdd4cbdf810a6U, 0xbcd0b1fa3d8496c6U, 0x3cab34fcbdcebdc6U, 0x3d930b6b3d5713eaU,
  0x3db4b4f3bde37be0U, 0xbd8e1e373dc9971dU, 0xbd97c642bc06ac05U, 0x3d90672a3d92bcc3U,
  0xbe054a3dbd925a70U, 0xbe2d3f6d3d8d6d18U, 0xbd07a836bd5b8678U, 0xbd3f01393c1d0d25U,
  0x3de533cd3d00c373U, 0x3de15359bd146e31U, 0x3dd0e8843d0e1620U, 0xbe88b2943d94c846U,
  0xbce40c9b3cb9710cU, 0xbbad492fbc0b0849U, 0x3c3a9a9ebd0668fdU, 0xbd942d55bdbe04cfU,
  0xbe84d7cebdc49780U, 0x3de360a3bdd71a05U, 0xbd825de23dbc9e5bU, 0xbd587e5ebd546683U,
  0xbd9a83a13e328ab2U, 0x3d228985bd98f89dU, 0x3e48db6fbcb152d6U, 0xbd854a613c0cb5bcU,
  0xbdee317a3d887067U, 0xbda77fc8bd7df59dU, 0x3e5930d53dfb626bU, 0x3da00e53bdfe651cU,
  0xbdfe701cbc1193b9U, 0xbc883f3fbd0386c3U, 0x3db49a58bdebe08aU, 0x3d830e073cd0466bU,
  0x3cbd99d7be339fd3U, 0x3ddaa884bcd7f48eU, 0x3d0b0c88bd0e0989U, 0xbc8397ba3ca40742U,
  0x3de8fbf63d0f8aeaU, 0x3debd5573d38fea7U, 0xbbe4aed93bdff4eaU, 0xbdda411abd2e8b45U,
  0x3e80e3f2be10b1afU, 0x3b18e548be10cacbU, 0xbdef6fdfbd32f38cU, 0xbcdd4086bd1adca0U,
  0xbe133305bc5693dcU, 0xbd620708bd443dcdU, 0xbded29f3be2d98d3U, 0xbd881adb3c764e2dU,
  0x3d7ac9f53c7e9eafU, 0x3d2a51543dcc5195U, 0xbd6c7cfcbdbf3d18U, 0x3d137e553ca91ce0U,
  0x3d31e4d93d14d4fdU, 0x3d0410783dceeda4U, 0xbca83d25bd2f0ce4U, 0x3d617ebcbba50729U,
  0xbda74cbcbe0b1e43U, 0x3c6dfe17bb83b0f2U, 0xbe197509bb5fc8f0U, 0xbd15ccc2bd3f0728U,
  0xbc1e9c063d469b83U, 0x3dca10e33c36e955U, 0xbd7aad34bdc2ba49U, 0xbc8ae6a5be6cc98eU,
  0x3e0e4003bc72fad5U, 0xbe02b63cbdc68971U, 0xbd462dd6be0b8641U, 0x3d0f561abca9a74aU,
  0xbd972d34bdf8f2c7U, 0x3d574cdd3cfb01b3U, 0xbd9e85cb3da4a507U, 0xbe5bf04cbc6aeb1aU,
  0xbdc9ef623d8c052aU, 0xbcd43b41bd74fc65U, 0xbe17e9283e0bc2bdU, 0xbd7edcddbc249f34U,
  0xbda0f13e3b2c9d15U, 0x3d0f68d0bdb954a4U, 0xbd12bc26bdc8107eU, 0x3e053dbbbe22c774U,
  0xbde812fc3e0e7ee8U, 0x3e493b47be35d946U, 0x3d336d5cbd1fafd8U, 0xbde06a81bdbbf817U,
  0xbdb975303d1b8c96U, 0x3d0da515bdfe4c81U, 0x3da06ee23bf60dc7U, 0x3bf785febe6ba4c4U,
  0xbe580d3a3d8dbe7cU, 0x3d9f33cdbcb63b9bU, 0xbd065d813e016d8eU, 0xbc30ba313de7077eU,
  0x3de10ec0be1a3692U, 0xbe272bc1bd4d9479U, 0x3d3e3abcbe0d8706U, 0x3e1020c5be063b16U,
  0xbe636b9dbdf433e9U, 0xbdc68c2abd2a22eeU, 0x3d582a63be0e656dU, 0xbd5373023dbf351bU,
  0xbd07c6213e097cc9U, 0x3ddcc93e3ce989feU, 0x3de014d43e08a9faU, 0xbe559df33d5c7606U,
  0xbc3a11443cfe68f5U, 0x3dab582a3ca81356U, 0x3cab9ae7be2668d2U, 0x3d1e721cbb4e8f39U,
  0xbc6ecaa8be806fbaU, 0xbe3f879c3d93d223U, 0x3d589bcbbe1db48bU, 0xbdf3cdb23e01f544U,
  0xbd8af27cbdb0d883U, 0x3c6355db3b19b3f2U, 0x3bca5fbebd0185caU, 0x3e9a8733bef2ca01U,
  0xbe6049ea3fbb110bU, 0x3ebb2282bf0abeccU, 0x3f86062e3fa9e805U, 0xbdfafdc1bdcc280fU,
  0xbda0ee743db1def4U, 0x3db2c5783df40befU, 0x3d9683bb3bc02b2eU, 0xbe6e674bbe142205U,
  0x3d94b14ebe3e338eU, 0xbd437bdfbc113dcfU, 0xbde5d3193dda06c3U, 0x3e098877be26751dU,
  0xbe2862d4bce1f73cU, 0xbdf43292bca883d2U, 0x3e3164f93e021589U, 0x3d156d123ba87234U,
  0xbdbc6927bc95eda8U, 0xbd91b4d6be53aec8U, 0xbbdefbcb3e128a05U, 0xbd76170dbd810c1fU,
  0xbd8539df3e255107U, 0xbc7e401e3daddadcU, 0xbda52be33dca8858U, 0xbca88df1be35845cU,
  0xbdcae323bd1941e0U, 0x3e14c61bbdfa68f9U, 0x3dfb0ddabd35c03cU, 0x3d94207a3d9cceb9U,
  0xbe203a583c5345c7U, 0x3ddb9893be59c458U, 0xbdcd96ad3d90fecbU, 0xbd1a3f173d30b69bU,
  0x3db0f250be22fa9cU, 0xbe4a4759bcd152abU, 0xbd5499723e7a7162U, 0x3df6d847bcbf5c46U,
  0xbd7182cc3c1b1071U, 0xbd9addd03e176decU, 0xbda73495bdf4af41U, 0x3e619a6a3d277625U,
  0x3e1caf68bd3d9f24U, 0xbbada3193e476151U, 0x3c9ca012bd30680dU, 0x3d253bb63e133465U,
  0x3d1d0d08bdb4ae6bU, 0x3d6af9e43e04239bU, 0xbd9d87e83d77a4bfU, 0x3d52e367bcf38514U,
  0x3e12861ebb65da24U, 0x3c2bb433bd47a969U, 0x3c0a97bc3da0ef4eU, 0x3d1b773e3d0c32aaU,
  0x3d2f192b3ceb5bdbU, 0x3e2a0a16bdd1e068U, 0x3c8a1bfc3e35a6f7U, 0x3dc88265bc7a9c00U,
  0x3d317f3fbd3116ebU, 0x3bea15cabb9ee983U, 0xbde48792bd208bb7U, 0xbc43426dbca87ba1U,
  0x3c4450103d0c67b0U, 0x3c3115693d500b20U, 0xbd7d95373d362f51U, 0xbc792680bdeb1274U,
  0xbd422b31bce773d1U, 0x3e2cfe56bdfd47e5U, 0x3b786aa73d67e993U, 0xbdfe18e0bdb11da4U,
  0xbdd7713ebd17ec35U, 0xbd67b917be20796cU, 0x3e0adec23d87627bU, 0xbb1a78d4bc652f94U,
  0xbe6b77153c91b61bU, 0x3d7e529bbe2a158cU, 0x3d2fcf3d3d477e17U, 0xbe7a37abbd9d9871U,
  0x3d3245b93c53070eU, 0xbd1a4e223eacd594U, 0x3dbd50fe3d32fa56U, 0xbd522cb83d264a8bU,
  0xbd0616d23c8abaceU, 0x3d3970a53d4a0276U, 0x3d8915b83db66569U, 0xbe02159abc5796cbU,
  0x3e2439c63ce6e850U, 0x3c435cd2bd931d90U, 0xbd36df663d84a451U, 0xbd9969cb3db46a56U,
  0x3d30b5333e6876f4U, 0x3e126667bd24da67U, 0xbdbbc0df3c61f256U, 0xbd09417bbd9d1902U,
  0x3d2fa1b83b6f4b8eU, 0x3b187db8be1b54faU, 0xbdc413e6bc10c94eU, 0x3cd3c8afbdab94c3U,
  0xbddc023dbc985a7fU, 0xbd618db5be6358b0U, 0xbc8b0102bd15ab04U, 0xbd2e1df43dcea12eU,
  0x3dbfc4063cf266a9U, 0xbe0b3a9c3daebddaU, 0x3d7647873d797596U, 0x3d1a862fbcc4f2d2U,
  0xbd2504ff3ccd60c9U, 0x3e4e3c003e3fb273U, 0xbcab7b64bd71b906U, 0x3c74f5283e09d572U,
  0xbde0e1233de73ac1U, 0x3d959f853d151316U, 0x3d61bf2f3ddac9f7U, 0x3d408725bcf777baU,
  0x3ddec480be0091c2U, 0x3e76896c3c8a49e1U, 0x3e58266c3ba48435U, 0x3ddd168d3d366bdbU,
  0x3cbfc7b7bd141addU, 0x3c8863283dc1d792U, 0xbd319b32be7fe756U, 0x3e0d64bdbcb580bcU,
  0xbe3dcc2f3d4c08daU, 0x3eca4c823d69d8b6U, 0xbc230711bdaf5aa6U, 0xbe082d87bddb79ddU,
  0x3ddf0b6e3db121fcU, 0xbd740e38bdb1f668U, 0x3e0a3781be638154U, 0xbd7fd0e53cb39d8aU,
  0xbdf90540be2915b5U, 0x3e1936cfbcfec91eU, 0x3ddcb78a3c95b2a9U, 0xbe5493c8bdbba551U,
  0x3d5d32bb3d137154U, 0xbe21336d3d28963fU, 0x3da6c7143e0e9515U, 0xbdf677f9bc835f01U,
  0xbdab71a13d2d5756U, 0xbbb5f6143e40fe0bU, 0xbbe21f91bcd6ec49U, 0x3e61a7ba3e152b06U,
  0xbc504d76be3d9c55U, 0xbe22406abd2e97d9U, 0x3d04078c3e00cb54U, 0x3c4670143d8594bdU,
  0x3e37f96bbcaf7374U, 0x3c3fbb813e0fbfdfU, 0xbd93935fbe373864U, 0xbe2a44f83c8d426dU,
  0xbd8fe93f3e0c636bU, 0x3c7649813d8af6f5U, 0x3b9579043e05508bU, 0x3e1eae3bbd8ab19eU,
  0x3d3e17dabdf7e71aU, 0xbc9c9c47be52edbdU, 0x3cd11bf33e09b2edU, 0x3c97ea6ebe1c3c5cU,
  0xbd5b05ff3e545c9fU, 0xbe52047bbd954f07U, 0x3dc727bdbe109e64U, 0xbdd69c9a3e87f963U,
  0xbe2061033d107aaeU, 0x3de1b3cd3e56e7f6U, 0xbbd51fecbd5dbeb6U, 0xbc97915f3e29d182U,
  0x3db84191bd811c82U, 0xbdf187053e4281c9U, 0x3cca50babdcf5c16U, 0x3d8e11f4bd1adddcU,
  0x3e56f477be02359eU, 0x3c98ece13e48d6d0U, 0xbc7b1076bd3b222eU, 0x3e3dc6d23e4186f2U,
  0xbc29db313df254ebU, 0x3ce25ab2bdb3ce29U, 0x3c855c3a3d550c01U, 0x3dc267c6bd8d9955U,
  0xbd59b0cb3e038451U, 0xbe10139bbd63de50U, 0xbe195d763cbeae59U, 0xbbd921f0bd56f591U,
  0x3dbd8a143d74bc6fU, 0xbe3efa123b1ad497U, 0x3da583983e110c5eU, 0x3d41892f3de98ff2U,
  0x3df04c0abd9ce916U, 0x3d6110c63cadeaedU, 0x3dfd84013cc8caecU, 0x3d7d5b663dccc632U,
  0xbd3b610a3d08dd75U, 0xbd43d8703d0fd47dU, 0xbd863ad3bacaf0e3U, 0xbe5d224bbd1d83a3U,
  0x3e1b396c3bed4bfdU, 0xbe0eb8343bddc6c4U, 0xbde5b883be0e11f2U, 0x3e37865cbb94c4acU,
  0x3d174995bdd8206eU, 0x3de876c73e3a05f7U, 0x3b931d523cd87108U, 0x3d1577ab3d18530fU,
  0x3d52ee8cbe54739dU, 0xbd3b6efc3d5b225fU, 0x3de84f0cbdf8665bU, 0x3e34d7b4bdeb2050U,
  0xbd9df03dbd1408eeU, 0xbbf9a9d6bd10df4eU, 0x3d8f5814b9524f47U, 0xbdcdd36dbe198b2fU,
  0x3e690353bd876d10U, 0xbe30b8173dd434cbU, 0x3e0711a23d4a2161U, 0xbda91639bb502198U,
  0x3e09bf7fbcf3546dU, 0xbd56afb33dc7b9d2U, 0x3ca33411be34158eU, 0x3c659cedbe9c97dcU,
  0x3d33a4f6bd097a57U, 0xbe53cc0b3d22af15U, 0x3d3f646bbd0889a7U, 0xbd26aa3bbb035e67U,
  0x3da1f890bd9af9c3U, 0xbdbdd908be7300f5U, 0xbd235ffd3c1375a5U, 0xbdf6a8e1bdf2ed54U,
  0x3e305f99be80d159U, 0xbdbfd6b9bda6d909U, 0xbe1d2d6c3e0ab44fU, 0xbd8a1e6e3e275674U,
  0x3ed9f694bdb7a121U, 0xbe5adfaa3aca7ed9U, 0xbd2c4f32bd9983e9U, 0x3cb2a7e93b36cf53U,
  0x3e5825ec3cc269b1U, 0x3d47f7253c581eadU, 0xbcde4fd33d136a80U, 0xbca590ea3d38a858U,
  0x3dd9623fbd219070U, 0xbd3732cd3c8cdc14U, 0x3e4d339c3d2b9cd5U, 0x3da6e967bd183112U,
  0x3de244f13e7e8144U, 0x3d11ee90bd6081deU, 0xbdf67473bdd6e8abU, 0xbc8d0cad3e9136a9U,
  0xbe83b2a73dde79d1U, 0x3e30fa49bdbda993U, 0xbd68a9b03c9e0eb1U, 0x3dccb73ebc96a395U,
  0xbe48db6dbdfa9109U, 0x3d7449323e3099f3U, 0xbdc8240c3da50ab6U, 0x3dabee4c3e633ed5U,
  0xbe78c33f3cbba099U, 0x3e3bb177be0d210aU, 0xbd84364abe0e8190U, 0xbdceda8d3d9ee531U,
  0x3e534232be3d05eaU, 0xbe344996be524b16U, 0x3e1eb08c3d1eb6b9U, 0xbe2dd687bc9ba7d9U,
  0x3d6500ca3df8f5d2U, 0x3b82ee44be5e7d24U, 0xbd35fb82bd5c04bbU, 0xbe023a91bd079c63U,
  0x3a749d00be1569b7U, 0xbe19ad6cbe3e2575U, 0xbd926dea3d9eeaecU, 0x3dbc3d1fbc33a416U,
  0x3c02fbc4bbc78674U, 0x3de69b843e0e39baU, 0x3e6df42b3d2ef31bU, 0x3dbc59643e19004fU,
  0xbe1f4357be6288aeU, 0x3da6ea223e03757eU, 0x3e0cc45c3c80b0b0U, 0xbd972b13bdc78dedU,
  0xbe11bad43c88b7f6U, 0xbd439d99bd11d0edU, 0x3da10bddbd36fa61U, 0xbc89c04cbd10b291U,
  0xbd48753f3cf49aceU, 0xbe9fd6c3bcb2018fU, 0x3d4194123d685833U, 0xbbbc5225bc597376U,
  0xbc8ab82dbb22a8c8U, 0x3dde724f3d614a2dU, 0xbcd3b2d63d93450cU, 0xbd277f61bd3b99d8U,
  0x3d1b3cad3d678599U, 0xbcf78488be30f793U, 0xbd83207dbd1dd491U, 0xbc9a37ed3f361c8cU,
  0xbec4dc40be972cd5U, 0xbd067c13bf1efd53U, 0x3efe697fbd5ff966U, 0xbcab8a1cbecac9c6U,
  0x3e89481e3d9d08d0U, 0xbd367f573cf532eaU, 0xbcc626a2be92eff2U, 0xbd9b38cc3e6771a0U,
  0xbcca406abcd054d3U, 0xbe593f4dbe090cedU, 0xbe3a2ad6bf084cb2U, 0x3d94b09fbe395acaU,
  0x3d79ff7cbede46e7U, 0x3d356fe8be41147eU, 0xbe3e0d5ebe973b27U, 0xbcaaad68be363e1cU,
  0xbd1a5c4d3dbe4697U, 0xbe2bd1b43e0a6f60U, 0xbe6b6182bd0ce2e7U, 0x3dc747a1be9da785U,
  0x3e3b40103da38743U, 0x3dca053dbd8766d1U, 0xbdc06ab83df2c282U, 0x3de39d783c930e63U,
  0xbdb05e323db050bcU, 0x3d0bf4483d46c244U, 0xbcdec410be13ec1aU, 0xbd879e1bbea19a17U,
  0x3e185d8bbe7aaaf0U, 0xbb832a49bd4ea27eU, 0xbcc41bc43c8e657bU, 0x3ec8b56a3c9ed9a3U,
  0x3ba0b6e03da01d9aU, 0x3e92c536beba17e3U, 0xbe7217ab3d24ab7fU, 0x3ed409223e6ba562U,
  0xbe45614bbe7605c4U, 0xbcb8915a3e6363a7U, 0x3e44f1923e663bf5U, 0xbd2f4dafbcbb5b2fU,
  0x3e8f2365be2cc0c4U, 0x3e9271553e82da2dU, 0x3da09732bef6fcb6U, 0x3db26bfbbc821962U,
  0x3e15c85fbe0e80e9U, 0xbcd8aa80be740673U, 0xbe2c77ebbe4abf45U, 0xbcf29194be89eb9cU,
  0xbdd432be3e7b3fc0U, 0x3dc5a825bddd318dU, 0xbb85a7393d755355U, 0xbddfe2ff3c0ccad7U,
  0xbce791e33eb97d4fU, 0x3e3bf6a83e520901U, 0x3cea455a3c021a57U, 0x3e017a11be4696feU,
  0x3ac2a614bebac575U, 0x3e270da6be01ba91U, 0x3ec90d473e0315e4U, 0x3e055e183e8232dcU,
  0xbde8f348be0a07dcU, 0x3d9432763e32f2e9U, 0xbdffae6ebe2235c3U, 0xbd5e8e81be222149U,
  0xbeae8314bec7af04U, 0x3e45fc453d84b660U, 0x3d793b063ef765b2U, 0x3e48c8eebe259d7aU,
  0x3d419e183c0bb6a2U, 0xbd97dcadbed1cb56U, 0x3ec1bd353e368be5U, 0x3edd6423be1c3a63U,
  0x3d12ec68ba8a3dc5U, 0x3d5b4aed3e7df9c6U, 0x3e6753143d7f0571U, 0x3ef858093c8249aeU,
  0xbdf7296a3e35c70eU, 0xbaeefcd1bdfbc950U, 0x3daf70ed3eba67b0U, 0x3cd38bf2bf0b4662U,
  0xbe4467cfbe874328U, 0xbec667453e2aa6a8U, 0xbdd034013f146995U, 0x3e83fe883e2dd3e5U,
  0x3e9021a7bdcdd3e8U, 0x3dbdf9c6be121626U, 0xbec09a223dc94822U, 0x3e6c4e533d033fd4U,
  0xbd8482e1ba8e059bU, 0x3e1b91fbbe0f8d0bU, 0xbe23ea52be98f177U, 0xbd48666abd290104U,
  0xbe22966fbe4ae392U, 0xbd266ddfbe482041U, 0x3e9a5e61beaa9726U, 0x3d4c7d803da52221U,
  0xbe002a243b8dccb3U, 0x3e1323e6be230286U, 0x3e8483a33cc00798U, 0x3c22c3e5bef83e26U,
  0xbe2516a43bace134U, 0x3d2463263e359cdcU, 0x3e253331be7fff5bU, 0xbe16f9253df006c4U,
  0x3dd223e33bbaf01aU, 0x3ef862fdbee98f30U, 0xbde8be14be848863U, 0xbe2e287f3cb3b333U,
  0xbe18b45a3e363c4eU, 0x3e4af1853efbe649U, 0xbe1150ebbe0fc045U, 0xbea8ceac3e961b5cU,
  0xbe03f5f33e08d04bU, 0xbe556ecb3d88357eU, 0x3e503ea2be9d4beaU, 0xbddd09a63e4ad047U,
  0xbe16ef8abbef47b8U, 0x3da027c4bd864004U, 0x3e157cbebdbe6e5aU, 0x3dc1fc3d3d387b15U,
  0xbc9430753e2e4e4fU, 0xbe4281b8bd0b04b6U, 0x3da9e992bdbaea56U, 0x3dfc76e6bc9e487aU,
  0xbeb493a5bc19285bU, 0x3dc5cd4cbd7af110U, 0x3e4e26c8be8ee081U, 0x3e63c56ebe38ed73U,
  0xbce83bf0bcec9f80U, 0x3eb9aece3d418e69U, 0x3e342b7b3dce8131U, 0x3a26f100bcf49ea3U,
  0xbe370a3abde305f0U, 0x3e154fee3e8562c4U, 0x3dd829ec3e076022U, 0x3ec8dfe4bdcaa37fU,
  0x3da643fcbe1048bbU, 0x3dfcdc013dff147bU, 0x3d3a76543d62e558U, 0xbd09a29d3dea6f7eU,
  0xbe0cdea4be399914U, 0x3ea847493e5123b2U, 0x3e236abe3d2390bbU, 0x39d6967a3d1d1c1fU,
  0xbea48fa5be5a98b9U, 0x3e17141abc4c2742U, 0xbd897c9abe2572f6U, 0xbe1419d5bd204943U,
  0x3df10d09be28456fU, 0xbda6dc943e908eadU, 0x3db2ef65be0988a0U, 0xbe601bcb3d1df64eU,
  0x3ea960a23e219771U, 0x3ec3ec43be69e2b9U, 0x3c0a1bc7bcd31234U, 0x3d4e42703dfc35b4U,
  0x3e264eabbdf2e9c1U, 0x3f0871b5be84a96fU, 0x3e37ba773c685904U, 0xbd577b89be16a5e5U,
  0xbd4f3f323ba1f193U, 0xbeba96a83e14ad4bU, 0xbde738bfbe878df3U, 0x3e7105f6bd8b762aU,
  0xbe15f466bdf860a4U, 0xbeb4245cbe603255U, 0x3d491f70beb9cde4U, 0xbe517176bd892e9bU,
  0x3d664853bd5ed03aU, 0x3e7123a7bdc04fbaU, 0xbe69a4babe006b18U, 0xbdcf0deebd8fdd29U,
  0x3e0fd707be71e72fU, 0xbba3f0e03ea2a641U, 0xbd4e2650bd7defc0U, 0xbe59b885bed4c3d0U,
  0x3d3f9bb23df6d045U, 0x3dd31cc23e0f5572U, 0x3e162bbdbdf2c846U, 0xbd863c0b3d281bdaU,
  0xbd8124c43d277010U, 0x3d37a9da3d6a8495U, 0xbe1870e6bea0abd9U, 0xbcfe08903dc482aeU,
  0xbeb63b6f3e0f225dU, 0x3c8c749e3be85b80U, 0x3dde526f3ea1b632U, 0xbdc8038c3dc6ad18U,
  0xbec31c683e84c698U, 0x3d9d7dc03cb78065U, 0x3b5d9ffc3e797dcaU, 0x3e0655f8bd4bba21U,
  0xbe6f47b43da61a2fU, 0xbea79f0d3e859978U, 0x3e37d8a23e5b6483U, 0xbe051b13bdc22bedU,
  0xbd275335be1f4577U, 0xbe72c2b7be9666bcU, 0xbdafe1a3bc206a63U, 0xbc9938fcbdfcf8ccU,
  0x3eda19d5be1e65f5U, 0xbde872173da9edcdU, 0xbc9536adbd32456dU, 0xbe803836bdbb5d7fU,
  0xbcca347c3d929f6fU, 0xbe989c953d7173aaU, 0x3dab8d4dbbc11f3aU, 0xbe4f56bfbd9313e3U,
  0xbdfb157abe672a95U, 0x3ebe41acbe03fe27U, 0x3ebbe800be758b3bU, 0xbdac6d373dcab977U,
  0xbe0d1307bd8fc428U, 0x3ee6b170bc4e2c51U, 0xbec0dbb0bdc8e97dU, 0xbe35f75bbd226165U,
  0x3dd95043bec6d66aU, 0x3eac93f2be1bba91U, 0x3e7f9166beba4a28U, 0xbda93b0cbd50e721U,
  0xbdeb7cb4bda68405U, 0xbe010141be5e4f6aU, 0x3d79f015bcf635ddU, 0xbe32c5d13e3932b8U,
  0xbda4b0c5be86961bU, 0x3c9d8f0fbdfda181U, 0xbeaabf8bbdb5701eU, 0x3e85e331bd9a9093U,
  0xbd80616c3c570856U, 0xbdf29f3cbe8e9e01U, 0xbea08854be6d35abU, 0xbd7ab120bdf0b0e0U,
  0xbd9ec6df3e25abd7U, 0x3e8af75d3e872423U, 0xbe272581be2f0b78U, 0x3d9b4f99bd9e17dcU,
  0xbe0339e5bd8dfd6bU, 0xbe5071763e507464U, 0x3c6f4f193e0be88aU, 0xbe57bb9b3e4b5c1eU,
  0xbd25b6febd502358U, 0xbd8c9e52bcccf9c3U, 0xbd99b15cbd8fe107U, 0xbdbcb0dd3dcb3812U,
  0x3c1e068e3dbc8b4bU, 0x3e3ce6fdbc153626U, 0xbe1666ebbccb3924U, 0x3d97300a3e1763edU,
  0x3e34a98e3a526b2cU, 0x3e67f3823df5c7feU, 0x3e1969333e1ae967U, 0xbd891c29bdca7e84U,
  0x3dd0852c3d9ff926U, 0x3ddb96d6bdf64605U, 0x3eb3d2963ea318d5U, 0x3e0d4f63bdc9a375U,
  0xbc94df38bcab269aU, 0x3b3234d6be6c02f4U, 0x3e19db6ebe84f2bdU, 0x3e2452fcbd44ec84U,
  0xbe6e4b683d13c4e3U, 0x3e0b127c3e8c3d65U, 0xbd9b61fabeec3f9dU, 0xbe990181be459afdU,
  0x3de9c2103e96ea13U, 0x3ee0db7abd91163fU, 0x3e2a95c3bd813964U, 0x3e087a3fbe695d83U,
  0xbe98b9f7be9dd6abU, 0xbe89f2f53caa576aU, 0xbe3e680cbdf440eeU, 0xbe687c103d17c0a2U,
  0xbe72b60ebcd7a65eU, 0x3d8037183efdddf2U, 0xbe27ae613e3eccbfU, 0x3ebd8b00bdab3eadU,
  0x3d8b97c0be0bc0f9U, 0xbd8eff4d3eeea42bU, 0x3e59dc9b3c5a6554U, 0xbc729def3cd70c5aU,
  0xbda0b6eabedc229eU, 0xbdc668f53e3cbd6dU, 0x3e2da8633d2976d3U, 0x3e8493323ea7de0fU,
  0xbd8983d7bc1ee8e2U, 0x3d321a76be468d0fU, 0xbd0da774be9780e1U, 0xbde1a2bebe0ca491U,
  0xbdc0d2b73e4b1d3bU, 0xbe3069da3e7670e4U, 0x3e0f49dabdf3345dU, 0xbebc69203ef85c2eU,
  0xbecb57c23e8ad735U, 0x3ed539493f16c54fU, 0x3ea0bb2c3e5ca0f9U, 0xbe8bc1f13ce08db9U,
  0xbdddf8a43df86e05U, 0x3dd43448bdb76c39U, 0xbcfa10543d4d28f4U, 0xbc73ff80bc01eb5dU,
  0xbd756cdebd849897U, 0x3de9f52abd3ff4d3U, 0x3db8d3afbe592419U, 0x3d5b406b3dc1c37aU,
  0xbca6542abe8faf0dU, 0x3ca5ba36bd6e095cU, 0xbd3525193df90e2aU, 0x3cc9ca86bdac65a3U,
  0x3d2fe7a5bdeacd22U, 0xbe04fcd6bcdcd360U, 0xbd06ccc2bc32e3a9U, 0xbda7c843be281fe2U,
  0x3d972328bdcec729U, 0xbdc6f9443dc8b2abU, 0xbcc8002abde0e92fU, 0xbb2c7723bdc1c383U,
  0x3d978ffb3db22f35U, 0xbe4740babd043aacU, 0x3ade3e5b3d8f1990U, 0xbd3fccde3dc221acU,
  0xbd07aa4a3d01810fU, 0x3df40c01bd368f00U, 0xbdb8f38fbda7a584U, 0x3d3722a23e43dd2cU,
  0x3df47662bd2c7e8aU, 0xbd9d0b7d3ba4f0aeU, 0x3c73f3a13d22b896U, 0xbdae3b46bceb0089U,
  0xbda15121be2e0ce1U, 0xbd90be383d6afd94U, 0xbd61f3d23e851b64U, 0x3d5bbe623e09a0e5U,
  0xbd6842f5bd96318aU, 0xbe133dc3bd84ab6cU, 0x3d888c1cbc3db536U, 0x3bea0d94bd52aa93U,
  0x3b9fda23bccc23cfU, 0x3d9e6f11bd0e0015U, 0xbd2e21c53d924c4cU, 0xbddec5ee3d0df321U,
  0x3dba3ae83e0c8ef5U, 0xbe10196dbd40adddU, 0xbdd3b2a4bc5de79dU, 0x3e59fbda3da9d3f9U,
  0xbd3e7b733d36e8acU, 0xbdfcd9323d421dedU, 0x3e2286b43da776ddU, 0xbe101604bc472b80U,
  0xbd6cd2983d98a2b2U, 0xbdb83f38bce62810U, 0x3c9d2dafbdbd21a4U, 0xbd7692d8bc08ad14U,
  0xbd411084bda21851U, 0xbe0adb3f3d9b7dfaU, 0xbc269b29bd578251U, 0xbe1bd8a23dbcbc26U,
  0x3e035cb33d3746b6U, 0xbd8075173de3f06cU, 0xbd002863bd31b608U, 0x3d8e3cdd3e0d2192U,
  0xbd4a8fff3d94ab1dU, 0xbe57f9bdbd8d1e12U, 0xbcc459313d81a918U, 0xbd43eb5c3df96000U,
  0xbd68a0bcbd4b948bU, 0xbe2252c23d525058U, 0xbbbb99333ab3d4cdU, 0xbc3c6ec8b9903c86U,
  0x3e457d7a3db29b05U, 0x3e3b04db3dff2740U, 0xbd417b0e3d095447U, 0xbd45a5fe3d823bb4U,
  0x3de4c09e3dda3e76U, 0xbdee1965bbabd3e1U, 0xbe0595e5be151c99U, 0xbe1e30f73ddcef28U,
  0xbd721e10bc191bbeU, 0x3d4cc9cf3d99ecbfU, 0x3c6c5268bdb13f58U, 0x3dadd6563dfd8e44U,
  0x3de416843d55d914U, 0xbd425989bdd26a54U, 0xbdcc3c6cbd9fe33fU, 0xbd82d8d63dd2330dU,
  0x3c1a121d3d8745b0U, 0x3e0c0dfc3d17fc5fU, 0xbd78186abbaf52b6U, 0x3d93acbf3d1dd918U,
  0xbd8303513e374672U, 0xbd80f0553cd943e0U, 0xbd2cf3b03d3c4650U, 0xb935a90cbcde4ba2U,
  0xbcb0e5f1bdeaee3aU, 0xbe64d9253e0ebc81U, 0xbc961783bda62ceeU, 0xbdbe420bbde6a4cfU,
  0xbc079bb3be59236bU, 0xbc02d067bdce6b21U, 0x3df010e53db72e45U, 0x3e67a4433d1b7d54U,
  0x3dea71023c86dc25U, 0xbddd47763d2b1e29U, 0xbd8ae52dbd75e1cdU, 0xbe1e37683dc1089eU,
  0xbd5a91dabe0186b0U, 0x3c4632f53c1a208eU, 0xbdd23260bdb8b395U, 0x3e2a4dce3d3c3735U,
  0x3dbff5f3be8ab931U, 0x3deadf65bc7b6ddbU, 0x3d1045153c8f451fU, 0xbc0a4e16bd440fc3U,
  0xbcc96beabd060d6bU, 0x3d26521d3d018c3aU, 0x3d495a4dbdea7bc3U, 0xbe22d0d3bdb9b465U,
  0xbb18bbbeba32ae2bU, 0x3d6955383dc7b118U, 0x3d4bf9dbbd02ce91U, 0xbd0488073d0f9836U,
  0x3d59feb93d7eec88U, 0x3d84d8e3bbdb81e8U, 0x3d85849cbb0e01afU, 0xbe0c56933d61d3d7U,
  0xbd6d2b0e3d18a45bU, 0x3dffdcca3e196dd4U, 0x3d92c31d3d9f5862U, 0x3de0755d3d183cb9U,
  0xbc03f1753d9cfea6U, 0x3cba8896bc2f7fadU, 0xbd08c4453dab402cU, 0xbd6ed81e3ccb1f8aU,
  0xbd0324f5be287bd4U, 0x3cdb8a9d3b62e6d9U, 0x3d04fc6f3d881c38U, 0xbda54dafbd83aad7U,
  0x3dc12edebca41c22U, 0xbe1b0a99bd77c2b3U, 0xbdf41484bdbebb4cU, 0x3d77a86c3d032c66U,
  0x3bd6eb323e4a208aU, 0xbcfde9aebe01221dU, 0xbdbba97b3d5dd56fU, 0xbbfaf661bc674559U,
  0x3ca93c903caba89dU, 0x3d1527dabe16e957U, 0x3e0d2719bd5adbd6U, 0x3d3424a23e71acefU,
  0x3dbdc79c3dc62dbaU, 0xbdc0500b3e13adf4U, 0x3c03c6acbd07bab2U, 0x3bc52689be06255fU,
  0x3e2bdcfb3d3725b5U, 0x3d2387e23e26c300U, 0xbea8e29b3e08486fU, 0x3b7045ebbe0a500cU,
  0x3dcdfcbfbd4d7a5eU, 0xbe0549283e06af6dU, 0x3c07eea5be2de8daU, 0x3e47dc5a3cf47ac8U,
  0x3defbdfb3d497e48U, 0x3c39d7bcbce848cbU, 0xbe367f29bc9ac9e1U, 0x3e1cce6d3e52c12cU,
  0xbdad4a7f3dcbd053U, 0xbda5e1a03e472952U, 0xbd8d12b8b9fb2263U, 0xbd39b2eb3d559ea8U,
  0x3d12d6fbbd88cfb3U, 0xbe18a6993e28e531U, 0xbdb94d74be0ca6c7U, 0x3d8a65fc3e930aacU,
  0xbdcebc93be8188e9U, 0xbe97bba53def70faU, 0x3d9cb2543e00c7ddU, 0xbdc3bb8e3e1dcd9aU,
  0x3e362fc43cc0a3f2U, 0xbe3b6bd53d7f6261U, 0xbc044fa9bcb7d792U, 0x3d3a435d3da31639U,
  0xbe18a0a4be01f50bU, 0xbe0445993dd65430U, 0x3c85902cbdbbe67eU, 0xbe11e3bd3e0b87baU,
  0x3e66155ebcf21074U, 0xbdcd28c63e2f0941U, 0xbdf01c3a3d3949e0U, 0xbdc7526fbd7775afU,
  0xbcd630bcbdd09fdbU, 0xbdd3a39f3e1565afU, 0xbd5c9c7ebe0f79aaU, 0x3e76a348bc9c23f7U,
  0x3d601477bd2cdb90U, 0x3d2942d33cfd090aU, 0xbe35938cbc6ee8b9U, 0xbde49b93be477823U,
  0xbd609e1c3d763167U, 0x3c4543d2be11a9bbU, 0x3ce9de29be2b1c15U, 0x3d6ac33dbd8d6411U,
  0x3d9e95c43deab371U, 0xbbbc6f643e46d6d2U, 0xbd1fbbca3e54b0ccU, 0x3bb9e49dbe29df2bU,
  0xbaa1625e3dcfd6c9U, 0xbddb747bbddb1fe8U, 0x3df75c443e4a1199U, 0x3dc121023bf5a11cU,
  0xbdbd9dff3df2fbbeU, 0xbdb865803db47adfU, 0xbdba2ad6bdee658aU, 0xbdd4d5c4bd60b3b8U,
  0xbcb03129be470083U, 0x3cac5320bcaed134U, 0xbd18d1dd3cc42494U, 0x3daabcbf3d3cedf4U,
  0xbc15d4293d8bf21fU, 0x3cbf646f3d2adc3fU, 0xbd45d6d6bbc3e01dU, 0x3dc8b6833c7facb2U,
  0x39a863fabd81b806U, 0x3e02a5b63d1c4a95U, 0xbce42b553de716d9U, 0xbc23425abb97da83U,
  0xbdd9680abb6662ceU, 0xbd22d5bcbc8258b3U, 0x3dee2a8c39c2d9eaU, 0xbddcc2b0bb1fc362U,
  0xbdf51f1e3d54aedeU, 0x3d8d0b00bdaf1778U, 0xbdd99c5bbc31d515U, 0x3c3ee8c13d76ef69U,
  0x3d7df884bd6876fbU, 0xbd2751d7bd47c46cU, 0xbd86303bbda50160U, 0x3e26d879bde673e1U,
  0x3e5073fdbd97654cU, 0x3dec0efebb6b76aaU, 0xbceddbc23d35f2b2U, 0x3d110ff93d4e3680U,
  0xbe1d19cebb92874fU, 0xbd1e2af13cc7e25bU, 0xbc0fa722bd56209bU, 0x3c9b4865bb54b239U,
  0x3e3f91fcbd918715U, 0xbd413b79bd822027U, 0x3d914ec7bcd6b658U, 0xbe10b45c3d265bccU,
  0xbc4c8993bce3bd59U, 0xbcb2295f3df26fbbU, 0x3e8736423bc445daU, 0x3d449c15bc5ee31dU,
  0x3e41194fbcd3553fU, 0xbd74033b3d9393b6U, 0x3d533077bcb9b386U, 0xbcdc2cb13d65f165U,
  0xbd48823a3df47929U, 0xbdbc75123dbbaf94U, 0x3bf229b0bd1ba097U, 0xbda40c96bd7202cfU,
  0xbd7173613cc9bfd4U, 0x3cbd5475bdc24b92U, 0xbe214fd4bc3e333dU, 0xbcc6672a3ddf88b3U,
  0x3ca484693e0db50eU, 0x3c2be8dabd5c17d7U, 0xbdc488c7bd96aee9U, 0xbc61c8b63d2e5570U,
  0x3df201343df0e043U, 0xbd65a1a33d3f658eU, 0x3d2b136cbd8d0717U, 0xbca5c74dbc21ede7U,
  0xbd98066e3dcdf0f4U, 0x3db659de3c31eff7U, 0xbb4aa5e1bcf8bd9fU, 0xbcbb8bfabca90eccU,
  0xbc8687ccbcaffb25U, 0x3ce685e7bc7355d0U, 0x3c10ec68bd15cbc3U, 0xbe0ad777bdc7cfeeU,
  0xbde9d1edbc3b9a26U, 0x3dd93d7d3c8b0c84U, 0xbd3be968bc3037ccU, 0xbd8006073cc525f6U,
  0x3cf6260dbdc6458fU, 0xbcc5795fbda4eae0U, 0x3e4eb2793da9c6aeU, 0x3cb22dd63d6753c3U,
  0x3d8c542fbd06491fU, 0x3ca713edbd3cbca3U, 0x3d137b863cbf834cU, 0x3cdac5943cefec7aU,
  0x3d623a7fbe186e8aU, 0xbe32233dbddf0da4U, 0x3d807f8c3d9bd55dU, 0x3b2157fd3d9eea0fU,
  0x3dbc0a4d3ddf6cacU, 0x3c45c2b7bda332b6U, 0x3c85ded23d26b9b0U, 0x3bf135663b627a67U,
  0x3dc085babc24c798U, 0x3da86792bd4b334aU, 0x3db65aaa3d7b339fU, 0xbcd52d12bdfcdcaeU,
  0xbd904141bd50b2e5U, 0xbd0238e0bd7c9bc9U, 0x3b5627f7bde6c349U, 0xbd2142cbbda54a73U,
  0xbd2dc4773d51bf6aU, 0x3e2b96473cf749d0U, 0xbcb7a5653d8aed7fU, 0xbc7c8e8a3df6e560U,
  0x3c9a5fd4bb87d9adU, 0xbd6aa7e7bd44a390U, 0xbd6d3ff2bb971c8dU, 0xbd5b5bcfbd570e37U,
  0xbd43e41b3e1e8aa0U, 0x3e63e7403d7dbef5U, 0xb992a874bc8c6d7dU, 0x3ca22fafbbad7308U,
  0x3ca005b13dc1a59cU, 0xbc828496bdde25ccU, 0x3d39f398bd578677U, 0xbdb51c73bd28597cU,
  0xbd9d3cba3e454612U, 0x3db3a18b3d9e1296U, 0xbd1412003dc3ca87U, 0x3d85a3c13da071abU,
  0xbdfc49e0bda4d7bcU, 0x3de0cc0fbcc14fd4U, 0xbd9853f5bd3faddcU, 0xbd6cb6ae3d34327bU,
  0x3ae536cbbdb7c462U, 0x3cf61c55bd16c5f8U, 0xbd48f05ebe109a43U, 0xbe3f61cd3d24247eU,
  0x3c5a54f4bd5ffecdU, 0x3d9d56213d89d246U, 0x3c6af640bde23126U, 0xbd8fa7db3d9d9848U,
  0x3da22ffd3cfced93U, 0x3e2e91e0bd7f45b1U, 0xbdd87fff3dd221f4U, 0xbdbbd7203e18c34cU,
  0x3cd33c2a3d889132U, 0xbda1740d3daa0386U, 0x3c8e01773c981fcdU, 0xbce21a6fbcb902e3U,
  0xbd8fe1e63ab42f51U, 0x3e632e283cd28375U, 0x3b065f3bbe2bf01bU, 0xbd2e5dda3d21d86cU,
  0x3dfc42453d940ec5U, 0xbe3ef203bd96b23bU, 0x3ca34f1c3d7195a2U, 0x3e227ed93da40aaaU,
  0x3ddf0d523c9f0041U, 0x3e04f5b03c23c83dU, 0x3d442dca3c83fa74U, 0xbca64ffabd548e8bU,
  0x3cfebaefbdba535fU, 0x3c7ecfc5bc95382bU, 0xbbe8c75d3d9993a1U, 0x3d22e67a3d3e9369U,
  0xbdc80f6cbe56c143U, 0x3d569713bc7051b7U, 0xbc062d773dc463fcU, 0x3d4da652bcbb0ff2U,
  0xbde6e3b4ba298ca1U, 0xbc2368da3db0162bU, 0xbe2da4b13d8acbe5U, 0x3d09b3f53d3725b3U,
  0x3dd1e8c83c713ee3U, 0xbdadd6763ae3a4cfU, 0x3e3ed7f83dfbbe4dU, 0x3da4e5fbbccb9b78U,
  0xbd09aa8b3c74780cU, 0x3dadb5893c168a00U, 0xbdbbf59c3e0abeecU, 0xbd87703f3da5c9aaU,
  0x3da6ccbb3cca4f2aU, 0x3d56d8563cd9d7d1U, 0xbb70c6b8bca64224U, 0xbe3298aa3dd44043U,
  0xbd458acebc05b964U, 0xbd8b0bd7bd838aacU, 0x3d58d9a0bb9d6defU, 0x3e54bbe73e1e4c7aU,
  0x3d8f6c673dc991b6U, 0xbe0a7dea3d81277cU, 0xbdb7e02dbd85e7f5U, 0xbcf657183d90ad5bU,
  0x3da9ad3f3c63e504U, 0xbabd5761bd088250U, 0x3d9872613c5f4314U, 0x3e0470e73d969bcdU,
  0x3e1a92d0bd5413d4U, 0xbded82fcbd996affU, 0x3d2b235c3d9fd830U, 0x3d6f97293e2cc92aU,
  0xbd465634bb7670a3U, 0x3dea8024bbc110c3U, 0x3d6b0f743d2900f8U, 0x3c1603adbd5e186cU,
  0xbdd2534f3c058ff5U, 0x3babb72dbb5b0c01U, 0x3c0d0042bd89d663U, 0x3c40cbcdbd908c84U,
  0x3d3854d6bddaacd8U, 0xbd58bca33c466b12U, 0xbde630ec3e477e54U, 0xbe0185053c37e8e0U,
  0xbdd7a73c3e256105U, 0x3dcbfa7b3cff3b81U, 0x3bc6988e3d508b9dU, 0xbd81b7f93e239aa4U,
  0x3dd95e593b8f2a65U, 0x3cdd96683ddc3df5U, 0xbc391486bd7adef7U, 0x3d1df58b3db4f1ceU,
  0xbccfb26e3d097dd0U, 0x3d131653bdf76c02U, 0x3d022788bd960dfcU, 0x3e032b5fbd68b2a9U,
  0xbb485da13e46e5bcU, 0xbdd8b3243c1bffe0U, 0xbbdd1126bce09ae8U, 0x3daae2dd3d99c170U,
  0x3d57f9433e44bb7eU, 0xbdea9f38bd1df0c1U, 0x3d987c603d368517U, 0xbde08435ba72368aU,
  0x3d96d263bdcf7605U, 0x3dc21e36bd6a9ebfU, 0x3de8d9dfbe1526b8U, 0x3aff343a3e1cdedeU,
  0xbd8d7dc43ccf85ffU, 0x3c1229b6bc3b5d08U, 0xbc9bd2fcbca7a655U, 0x3d5e27edba0d1ad0U,
  0x3e3225f5bb4834e9U, 0xbe0464afbe359249U, 0xbc90d0a73cd55b01U, 0xbccdc780bc03c018U,
  0x3d30dacfbc80e8ebU, 0x3cc70f2b3cc2f600U, 0xbdad11f13cb8ff2aU, 0x3e08313dbdcd6b63U,
  0x3e26c9913e0985dbU, 0x3db650b43e2ae36dU, 0x3ce82e13be3af4cfU, 0xbd9eaed6bcbe6892U,
  0x3dcb3d01bdb8fd06U, 0xb9eb5d743df90178U, 0x3da452b6bc30d565U, 0x3dea9a373e2bee35U,
  0xbd8ef3e2be34f9f2U, 0x3e0e8b143cb0a906U, 0xbd965911bd41faabU, 0xbdb842783da594f4U,
  0xbd49abd1be95382eU, 0x3cd7ac56bc155368U, 0xbd02af733c5380d8U, 0x3db2d9263dca69a3U,
  0xbe1ec6d1be0a481fU, 0xbe40c23a3d629e32U, 0x3dbf1e67bda21a09U, 0xbc25388ebe1e5991U,
  0xbd932e6bbcd37327U, 0xbe6b5fe9bdbb2527U, 0xbdc7ed463c5b3550U, 0x3e37328b3d665388U,
  0xbcb3edb73cf16f62U, 0xbd70dcb9be3a509bU, 0xbe0a90d83e8632bbU, 0xbc1ac81a3cb29364U,
  0xbe74ae033e4f8133U, 0xbe325104bc7be2e6U, 0x3e16b6cfbcc11c91U, 0x3e8b9a28bd2b22d5U,
  0x3e42f12f3d6a7100U, 0x3dc65ca4bea03ab6U, 0x3d58b6303e194ebcU, 0xbde9d991bd1b7de0U,
  0xbd9ec0993e22027aU, 0xbe0af127bd2fd11aU, 0xbdc4fd9d3d833f42U, 0x3da0568c3aaf7104U,
  0xbde612f5bd39d6baU, 0xbe10e533bd83a6b0U, 0xbd7dc1a73e3680c1U, 0xbd98049b3d88b49fU,
  0x3c04f7603dd58705U, 0xbd064ebd3e027c61U, 0xbd1f815bbdbe9f49U, 0x3dba1acbbdb946ddU,
  0xbd0e89d9bcbd536aU, 0x3dadad51bd5a1af2U, 0xbc8978d03d7af22eU, 0x3d4ca60e3e225c5eU,
  0xbd9368febce22e4eU, 0xbd45bff4bd62b237U, 0xbd9c7a513dabec56U, 0xbd8bb88f3d09013aU,
  0x3e300a4dbcdceb85U, 0x3d06ee043d9eee99U, 0x3b9fbe25bdd194bcU, 0xbd8eb2d93deaac1dU,
  0x3cf60364be0f6af4U, 0xbd1a38d93c8147b8U, 0xbd7171aa3e5dcc39U, 0x3c67c0e13d374c82U,
  0xbcdbb5113dd7e5b3U, 0xbcd45fe63cc2d0c2U, 0xb9a5231c3d1c5c68U, 0x3c8a23f53e2fc2dbU,
  0xbccba07ebcdd654eU, 0xbe4cd3da3b7ed61cU, 0x3d02f90d3df09037U, 0xbb518416bcdc42a8U,
  0x3d3608113cc4857aU, 0xbe0137bdbc36f801U, 0xbdf7fc613da0d82eU, 0xbb17e1b2bd78ce97U,
  0xbcdfbd98be599ef9U, 0xbb44b803be39d10aU, 0xbc990e23bd28d21eU, 0xbc8ed26abc2bb9d3U,
  0xbdafa647bd0991caU, 0x3dd6fa7bbdcd6f90U, 0xbd5b8e2e3d2785a8U, 0xbd62f5e1bd6db192U,
  0x3d30b3eabe516741U, 0xbd99592fbc9ff35dU, 0x3dae2b92be108fcaU, 0x3c4935a4bdea7f50U,
  0x3dc76798ba9eb577U, 0x3ce4ce223cf60118U, 0x3d89e7f6bd574722U, 0xbdd6af223d75e108U,
  0x3d5a90eabe58d5c7U, 0xbe105bbebd00249aU, 0x3d8552c3bdfbd099U, 0xbe10d210bdadc54aU,
  0x3c6244bc3e026c7aU, 0xbdb14696bc919358U, 0x3df94fbebd20aad3U, 0x3c10ea27bd6219b9U,
  0xbdac2ab93dd6aa4eU, 0xbc870f75bd9b9677U, 0x3c5efb40bc2743aaU, 0x3dc64f57bd4ce5d7U,
  0x3d2749fbbbdb8fc4U, 0xbd29671e3c0db8d7U, 0xbc49eaacbd865e76U, 0xbe19f42dbd210de9U,
  0xbd1c5a25bdb484b3U, 0xbc333b5b3defe7edU, 0x3d473b5cbe0bbf23U, 0x3dc7f9573dae70e9U,
  0x3b940be2bd07fdc3U, 0x3dff17a6be1d4793U, 0xbccc95f3bc84e742U, 0xbe18a070bda582d6U,
  0x3d5ecf433c25b40eU, 0xbdeb8ab7bc662836U, 0x3e454f0dbb966beeU, 0x3e0debcb3b4fc085U,
  0x3d30250a3e3f2a8aU, 0xbce322c2bdc98b95U, 0x3d900881bd2b0ff3U, 0x3e124ebd3f5cbfa4U,
  0xbc8c7ea93d4dda44U, 0xbf4d105dbea2fac6U, 0x3f409ed7bc188995U, 0x3e70ec0abdd47454U,
  0x3d757e6d3c12483dU, 0x3cb0a101bd90a00cU, 0xbddcddf33dbe53f9U, 0x3e54c4583e140879U,
  0xbe12aa533e43750fU, 0xbd78f6ce3c5a49d7U, 0x3db3aafa3dbca0f8U, 0xbd7352bc3d1ff885U,
  0x3d1206d53e5a9b47U, 0x3d011af93d09bccdU, 0x3c75e779bd2128f5U, 0xbd254d89be1755e9U,
  0x3e3137a93e35468eU, 0x3d94d8bdbdff454aU, 0x3d065eef3d96ee9bU, 0xbe3ddd363ddf5f48U,
  0x3d38a137bd770ff4U, 0xbe16c481be6dbe46U, 0x3df367e63dd6928aU, 0x3dd90a46bcec98c0U,
  0xbd4c0c61bca685a7U, 0x3dc85af03e0b18b7U, 0x3da5673e3d23f591U, 0xbe644c9bbe01cd67U,
  0xbd110de73e66837dU, 0x3d5a5787bcf95c7aU, 0x3da0cecdbdf6b956U, 0xbd89506bbdbfe654U,
  0xbde4c954bcfae70fU, 0xbe7a3d4f3d3c137aU, 0xbd05b7d5bdc49da1U, 0xbcb64dd6bc4c8dcdU,
  0x3dbbd20a3e24476cU, 0x3e0d31653b984506U, 0x3c0271ea3e0ab4fbU, 0x3e3e59a03e5ec0d2U,
  0xbe491ed43d04821eU, 0xbdfa5c923e530ef6U, 0xbe09d76f3d4c6f2fU, 0xbcaf13cbbd67f8e8U,
  0xbcdde1f83dc60f7eU, 0xbc5d3819be0f34a9U, 0x3dd58837bdacbac1U, 0xbdf442cf3dbd492aU,
  0x3d8983d9bd515d2aU, 0xbdb4f2df3d27326fU, 0xbd53ef6b3da63cebU, 0xbe4be9a1bdf476f1U,
  0xbd705d1fbe3c97d6U, 0x3d908d25bc7ecbe6U, 0x3db2952d3cf1f78cU, 0xbe66d5ce3d727cd6U,
  0xbe4c44b23e295606U, 0x3e304475bdeaec49U, 0xbe2185603b8382deU, 0xbdd9de6cbe2a5950U,
  0x3cc84b34bca0424dU, 0xbd803162bdaec13dU, 0x3e614a523d4425a6U, 0xbd9be55b3e94c5e8U,
  0x3c44fc49bd2103acU, 0x3e25ba5f3e48e10bU, 0xbca7eb0f3d01aa07U, 0xbd1f6f89be474732U,
  0x3c7dd10cbdaefcdbU, 0xbe0d402abdaf7b58U, 0x3e03815ebd92556dU, 0xbe613e8c3e6f2b1bU,
  0xbe71286a3aad7a10U, 0xbd45e55ebca580efU, 0x3d517b653cf20e91U, 0xbce65444bb803cb7U,
  0xba88f2c7bd36c1b9U, 0x3d9a2d703cefa607U, 0xbd9a4fdc3cc5a0cbU, 0xbde430053c01610dU,
  0xbd0aba1fbd58f8f7U, 0xbe50512a3dd88333U, 0xbd6766d33dcbd951U, 0x3e1f421cbd4ad5c4U,
  0x3de3b68b3dd43b18U, 0xbbd0b32fbcc4ee0cU, 0x3df3c27f3da32d36U, 0xbdf36b0a3e0589e6U,
  0x3e2406943c7f8470U, 0x3dd887babc9b6e92U, 0xbe0bd0653d95bac5U, 0x3d960375bd02c48bU,
  0xbcd7eab23cf93f41U, 0x3d8c8974be0f0585U, 0x3b115076bd1922fdU, 0xbd0807e4bd389b4bU,
  0x3de79c3bbc2eaad6U, 0xbd1705eb3cc2fd69U, 0x3d5b577d3d718d54U, 0xbca9221fbcf277edU,
  0xbd19a832bd8d56ccU, 0x3d906f36bce9922cU, 0x3e0dca9e3cb3247eU, 0xbde642fc3cce4640U,
  0xbc898143be366a72U, 0x3cf3ee6c3db2de1fU, 0x3d7229a2bd3639a8U, 0x3d2f36a4bd27a4e2U,
  0x3c2e83be3da64d23U, 0xbd106cd9be6060dfU, 0x3de9e891bd8af2b5U, 0xbd3ee99a3e145fbeU,
  0x3d393bf53ce7871bU, 0xbd2d8e063b39ec64U, 0xbc603f3b3d613545U, 0xbd51ffc9bd650dbcU,
  0x3dd023cb3c55a46dU, 0xbcafd77fbc8e73c5U, 0x3d24afe03cc53e40U, 0xbd2372d93bd8e688U,
  0x3d8c29363941cd27U, 0x3dc2c10cbbd0541eU, 0xbda4944ebbe2e7dfU, 0xbd5c797ebd2528a8U,
  0x3c60cfd43c8d98a2U, 0xbd17f435bcf1d46cU, 0x3ddb4a3dbda5a21dU, 0xbcdba01abd50cd33U,
  0x3d23f6ddbd9d489bU, 0xbd65ea803d6f3694U, 0x3cc26ceb3be31074U, 0x3d8c644fbd4b8ed6U,
  0x3beff6ee3d2b9550U, 0x3abf0c4a3d320ecdU, 0x3c954d00bd99c160U, 0xbe1d79f73d93320eU,
  0x3c1170a2bd11dcc1U, 0xbbaf3ed23c1db583U, 0x3c82a0ac3d98401aU, 0x3ba690863bc27ea8U,
  0x3d835cbebc7b2216U, 0x3d6802d33c0f4c08U, 0x3bc26c4c3e481e06U, 0xbdb3f6b73d86ccacU,
  0xbcc6469ebe135310U, 0x3e1e1d403de4f83eU, 0x3b7b2151bb24d18bU, 0xbe34bc7b3cd6faddU,
  0x3c2f20f9bd98aed3U, 0x3bffaf753ccbf8aaU, 0x3bdc51d7bdab6b86U, 0xbdd42f5ebe0a76d9U,
  0x3e0c74163ca78537U, 0xbe297aff3d87b600U, 0xbd7b182bbda80e9bU, 0x3d62feafbd95355eU,
  0x3db4ffe5bd411dbcU, 0x3e0e76833deaeb54U, 0x3cc5a956bdfd4dc0U, 0xbdeea405bde59aceU,
  0x3e150605bde3fd01U, 0x3b022c41bd24ea54U, 0xbe348b97be090f45U, 0xbda7d74fbe1d09a3U,
  0xbc00a05fbd6339f8U, 0x3dead1c23da69606U, 0xbe1cd07bbc9498adU, 0xbd99fd53bba08d6cU,
  0x3dc3cd783bdd5c7bU, 0xbdd0efda3c2e7febU, 0xbe132f513e1eb7fbU, 0xbd1a0458be074a54U,
  0x3dad30b6bda3bce9U, 0xbcb4fac63dc42e22U, 0x3ce4e8a33da40158U, 0xbe2f908cbb907ee7U,
  0xbe65eac0bdf48638U, 0xbd15120abd6ac86dU, 0xbdc852fc3d80ddabU, 0xbb3878d8be89d237U,
  0x3cc5af6cbe16ca91U, 0x3daee0793d3a1a19U, 0xbd81d460be1ef9c5U, 0xbd071751bc46bbbdU,
  0xbc967582bca5447fU, 0xbe10fad03e66b9aaU, 0x3c3d34acbd99ea78U, 0x3d6e20c2bd8c456cU,
  0x3e2af4b0bd83dbefU, 0x3d2231863d427485U, 0x3d190851be3b636dU, 0x3b7652043d37e10eU,
  0xbd13018cbd0b9323U, 0xbbccf180bc5d367dU, 0x3d87c6fc3bf676b3U, 0xbe00abccbd036767U,
  0x3d0dc82abe66b893U, 0xbe20c39b3d11c827U, 0xbd6b0599bde96e0eU, 0x3d758dcbbe021b73U,
  0xbdb4bc4abdde5f75U, 0xbd0d8c6d3cc5f93dU, 0x3dfece8bbdcf3f51U, 0xbcbeb9943c7739a9U,
  0xbd330023be367886U, 0xbb9bc2a3be0effe9U, 0xbdd0d092bd8fedf6U, 0xbd29257d3d74b1e1U,
  0x3e0e4df7be33d333U, 0xbcab1c573d37a648U, 0x3d9100b6bd5f8426U, 0xbdf177d93d8fde4fU,
  0x3dd4a8573d04e60bU, 0xbe114536bde7e608U, 0x3da9c678bd3fda8dU, 0x3bced25c3c9e5d0eU,
  0xbddd2fcdbddf674eU, 0xbd83cfdc3c9f2a03U, 0x3e1772acbd52c032U, 0x3d46740e3bd6bf0eU,
  0x3e3689bfbc5a3735U, 0xbc52c94cbd6b9b64U, 0xbce7e46abd2f23e3U, 0xbde7e68dbdeb28f4U,
  0xbb987a5fbd2a87c6U, 0xbcd8a6f43cdde435U, 0x3c16fc24bb858694U, 0x3e043ce2bd41bc37U,
  0x3dfc5df43c4dac9dU, 0xbcd8e205bda2b944U, 0xbcd3e9b5bd98f9bfU, 0x3d0be75d3d3d27b6U,
  0x3e5335a13d901ba6U, 0xbd962b7cbdf932e5U, 0x3a8603583dec6324U, 0x3b8d84de3da8d10fU,
  0x3e12ccc5bd392dbbU, 0x3a147a9bbb35512bU, 0xbd184283bdd47bcfU, 0xbcd82b533db6024dU,
  0x3e18425bbd5e3a7dU, 0xbd24b25ebe0d5949U, 0xbd9f106cbcc357e7U, 0x3d31219abe17cb4eU,
  0x3d4db89abd35ec9aU, 0x3ccce4513beacf50U, 0xbdc9b6e2bd88d145U, 0xbd8dbc03bd35525cU,
  0xbcba46a2bd9c46d8U, 0xbe151173bda4b065U, 0xbd2010cd3c99ee61U, 0x3dee214bbda5223dU,
  0x3e554d02bd0adb92U, 0xbd0bd9583d72ffdbU, 0x3dd1297cbd4f55d5U, 0xbdbbedff3e0460c2U,
  0xbd16391cba84a882U, 0x3bcc9e59bdcafd24U, 0xba9f704cbd758debU, 0x3e5bd3e5bd28a619U,
  0x3ce7cd173cf16992U, 0x3d918872bd241da2U, 0x3d92a809bda1eb91U, 0xbd5800463da73322U,
  0x3cc91b4ebd83aedbU, 0xbe355836bbd3b68fU, 0xbdcd75e5be553480U, 0x3db17839bd14560eU,
  0xbc546c8cbdedf8d9U, 0xbcb980b43cc059a0U, 0xbd5d6ac63c85b9c3U, 0xbcee17edbc4d3f35U,
  0xbd94a716bd8b780fU, 0x3de593373d8be75cU, 0x3d99c1313d176ae8U, 0xbbfe0462be1c2664U,
  0x3d7e093cbdc5cf52U, 0x3d9e64903cfd915cU, 0x3db443d13b9f603bU, 0xbdffa84b3d2f1097U,
  0xbdcee2a4bb995633U, 0xbc0058743ddef95aU, 0x3d3f2d533d08fb27U, 0x3d77ef31bd032455U,
  0x3c0a0ea03b1c90abU, 0xbc4dd708bcd90527U, 0x3e024f063bb51603U, 0x3cd588eb3dad6206U,
  0xbd6f4894bc58d8d4U, 0x3e08e4173e20d3bbU, 0xbd28f1f1bd2d3c22U, 0xbdd4e614be002b49U,
  0x3d3de67dbd984e7eU, 0x3e4196973db6ba91U, 0xbe256bb3bd938211U, 0xbdc58a563d28b6b3U,
  0xbd42e25cbc44e335U, 0x3d5c59993d39e085U, 0xbe19a305be05859bU, 0xbd302425bd9a0f97U,
  0xbd5828a2bd8eaef3U, 0x3d43a5943ded8b0fU, 0xbd9a8022be1a8c9cU, 0xbd77d8d0bd83ac0cU,
  0x3db6f037bda8ee34U, 0xbd421ecbbdda3d35U, 0xbdc1e07abe04c6c8U, 0xbda040e8bdb2a275U,
  0x3c31cc5f3d4a5040U, 0xbc5e5da83df64297U, 0xbe2df4153d3a9427U, 0xbd4180ea3d13c9c4U,
  0x3c914350bd7c1d1cU, 0xbcb2503b3cebf86aU, 0xbdc1c5ddbe1f43f1U, 0xbdc41ed6bd4c748aU,
  0x3c012f46bd82d3dbU, 0xbdff643b3e10ff33U, 0xbe24da273d054c27U, 0x3d1c56673d346345U,
  0xbce6f536be0a5f72U, 0xbda019d33d81b654U, 0xbdc854093d3f0e3fU, 0xbe57070dbcd475c4U,
  0x3dbab861be572029U, 0x3cbf968f3de46e79U, 0xbe4bc798bdbb053cU, 0xbc2978acbb1b9777U,
  0xbc829f1ebc5cb647U, 0x3de6bc1e3bb1cb50U, 0xbd8498dcbd927078U, 0xbd44ebbfbd36d971U,
  0x3d8e2c493cd0fb7eU, 0xbd8b4cc83d6ca88bU, 0xbde90c9d37928314U, 0x3d2a5be13d3ac876U,
  0x3d43ed99bc54113aU, 0xbc196c1dbbf78608U, 0xbd03de6c3d8e5aa4U, 0xbcc2987c3b90f998U,
  0xbc64c0d6be057383U, 0xbcee5b5d3cd66ed5U, 0x3d0a5727bb6df376U, 0x3e18bba93d12950fU,
  0x3d6d6426bd62358aU, 0x3dcf9cd8bd0c39f8U, 0xbdad75283d7e0d2cU, 0xbe1934e1bd30a040U,
  0x3ac79f1bbd987257U, 0xbd3dd4583c773535U, 0xbdf64e55bd6e89ccU, 0x3c1257aa3d948375U,
  0xbd8725a0bd62beabU, 0xbdd2c25cbce8e494U, 0x3dd70ee6bdfe46b5U, 0xbd4957123bb64fb4U,
  0xbddba7ed3c68969bU, 0xbde1a2473d17b0cfU, 0xbdc495d1be0f8e66U, 0x3d0f44fa3d5e8829U,
  0x3bc8abb8bcafda45U, 0xbd4f1025bd7067f1U, 0xbdd9c60f3d8a30d6U, 0xbdc35cc1bd6690d7U,
  0x3a9b0c4b3db17fe5U, 0x3d68f2943baa46a5U, 0x3c58f4ff3c52c3beU, 0xbc003d22bdb42427U,
  0xbb422016be2c63f3U, 0xbdb893d9bc13a34eU, 0xbe0002debc3e26d7U, 0xbdaa63653e2a1026U,
  0x3ce0ec64bd8637b0U, 0xbe210c723c504b5eU, 0xbca976e03dcd43cdU, 0xbdcba672bd39284fU,
  0x3d84eafebd501d2cU, 0xbc2a4145bcefdab6U, 0xbe014c723dfe6c4fU, 0xbcf46f17bb2413f4U,
  0x3e1d1f443e005974U, 0xbd407d1f3da538f0U, 0x3c115b9e3e016332U, 0x3da53eacbe353b66U,
  0xbcc665293e495fb5U, 0xbcd9546d3d6f282dU, 0x3d43d01a3e0c632aU, 0xbd9e40c93ddf4658U,
  0xbdad56c03e6783e8U, 0x3cae7e263dd88982U, 0x3d20bec43e1906fdU, 0x3df05b92bd5d740eU,
  0x3beed45a3d45ade4U, 0xbc92b673be00ff68U, 0xbddaf1a43e2bdebdU, 0xbdb1072a3e05f364U,
  0xbbc0001d3d8e665aU, 0xbd1a3b433bf79558U, 0xbde6a191bd45a293U, 0xbdf7b2ccbe238405U,
  0x3cd378953c2a4adaU, 0x3cf3ffd6be20a82eU, 0x3e18c30d3e734260U, 0xbd82c4393d6ed1f6U,
  0xbd9a892ebc401a90U, 0x3cadbd7bbe190eefU, 0x3d95c880bdcfcb4bU, 0xbcc035393b8e64c7U,
  0xbe4d69653dde695fU, 0x3ccf19ecbe733290U, 0x3c0b80afbd764e06U, 0xbe4763493dadb569U,
  0xbcb87f9c3e933bedU, 0xbca1ee3a3db38ebfU, 0xbb38c63abd1bce5bU, 0x3d6242d53d240684U,
  0xbd5ffc0cbd52bd03U, 0xbdf3eabfbca3bc84U, 0xbc61fbc8be0334f5U, 0xbe087dccbd374f45U,
  0x3da683c2bda26752U, 0xbd130fe3be414701U, 0x3d4aaa88be4573ddU, 0xbd012c2abc057e6fU,
  0x3d100bb73cb358f1U, 0x3d2c03a93c6358e0U, 0x3c8b2efd3c10ca96U, 0x3e2f15913dfe38d4U,
  0xbda70ce63dfede53U, 0x3d94c40a3d0c6839U, 0xbe0ac2e23bbe812dU, 0x3d59042cbd322451U,
  0xbdee9b893e82a955U, 0x3ceb6e523e0abd19U, 0x3d13f939bcf6b6e9U, 0xbd7a57f43e2f811bU,
  0xbdcb2aabbd420abbU, 0xbd147d31be1b0ff2U, 0xbe81afadbe4da2e8U, 0x3dbd0a7d3d146d2eU,
  0xbbcaf02bbd8313c4U, 0x3d81575a3c8ff674U, 0x3d9c9b81bda72836U, 0x3db9009d3ea6576cU,
  0x3d3c2c9bbe668ae8U, 0x3dbea490bdcabb1bU, 0xbd17ece9bdeb1f2bU, 0xbbf3430c3d80446dU,
  0xbd9f09e33e2df5b4U, 0xbdf46e6abe27c073U, 0xbc03a74e3d6140a1U, 0x3da44b6b3d37eaa6U,
  0x3dfcbca1bc74c7fcU, 0xbc3efe633bd71a78U, 0xbddfff703d011718U, 0x3d8847a1be2e0a77U,
  0x3deb25e83dee6215U, 0x3cef6ad43d8cd9e1U, 0x3da0a754be4a194eU, 0x3cf3d7b43db63a73U,
  0xbb967c22be2a8fb6U, 0xbd890bedbd6e824eU, 0x3da6581bbc6c819aU, 0xbe2ae10dbdcc3877U,
  0xbdb5b8a83c754c16U, 0x3db5f4423c568de9U, 0xbdddf4333c6e07acU, 0xbd09dbf7be29be78U,
  0xbd82f88cbd9af577U, 0x3c0ff4b73da6b954U, 0x3de4a409be3aded5U, 0x3e4cbc4fbcc9d877U,
  0x3ccc37d3bd97da16U, 0xbd982f7ebce37ce7U, 0xbcbb932e3dabb76dU, 0xbe4b5f26bcce56f6U,
  0x3d7fb50dbd265435U, 0xbcd9562abe004f72U, 0x3d932e31baf99c1fU, 0xbda98719be5e7c0eU,
  0x3e301cd3bd8ba825U, 0x3db3dab5bd800db9U, 0x3ca5a4b03de72d0fU, 0xbe1467c13d188baeU,
  0x3d2b17d6be175385U, 0xbd35ba13be66a0d9U, 0xbd0e3ef8bd0383d9U, 0x3db31051bd61d5d0U,
  0xbc3ea37fbdd1f31eU, 0xbd046a7bbd17b152U, 0xbd81503bbda06481U, 0xbcd892fcbc62d8fdU,
  0x3ddae4f2bd35433dU, 0xbd98c082bdffa4ffU, 0x3db424333d3bfac1U, 0x3d2fb6b23dbbb8f9U,
  0xbe5042eb3c9482f6U, 0x3d322b08bc7f81deU, 0xbd0cae9f3e2fa40fU, 0xbda73e423d772c78U,
  0xbd1da6c63d3e6dd1U, 0x3c281c3a3e6a45ccU, 0xbc966e88bd2fad84U, 0xbd0b81403d016545U,
  0x3c8370953d7f1257U, 0xbe271298be088aabU, 0xbdf7d4d2be05e501U, 0x3aaf83183c82d23fU,
  0x3c5ce152bce51dc6U, 0x3cbc9d0f3e0a8c20U, 0xbe28ae4dbcac97d1U, 0x3cc6173a3d08a6c9U,
  0x3d3853f7bdad30fcU, 0xbda6ccacbe455262U, 0x3dab4c6abd9b9a4cU, 0xbdeea55b3dd3ca39U,
  0x3e1750cbbd250dd0U, 0xbaf15cc33c57989cU, 0x3cc4ed90bd1eea35U, 0x3c0541293d828bebU,
  0x3ca5be58bd0e5c38U, 0xbdb4b6babce789a6U, 0xbb1e2e633d9de7ffU, 0x3d7758243e04879dU,
  0xbe23d5343c00baefU, 0xbc8ac0b63c0f02a7U, 0xbd985650be1fc885U, 0xbe05ab133d79dda8U,
  0x3bfc5ec8bddfbd75U, 0x3d4c1d4abd04f058U, 0x3caed2efbd39e0e5U, 0xbde29a8b3b6da627U,
